const unsigned char model_binary[] = {
0x1c, 0x00, 0x00, 0x00, 0x54, 0x46, 0x4c, 0x33, 0x14, 0x00, 0x20, 0x00, 
0x1c, 0x00, 0x18, 0x00, 0x14, 0x00, 0x10, 0x00, 0x0c, 0x00, 0x00, 0x00, 
0x08, 0x00, 0x04, 0x00, 0x14, 0x00, 0x00, 0x00, 0x1c, 0x00, 0x00, 0x00, 
0x88, 0x00, 0x00, 0x00, 0xe0, 0x00, 0x00, 0x00, 0xec, 0x30, 0x00, 0x00, 
0xfc, 0x30, 0x00, 0x00, 0x78, 0x54, 0x00, 0x00, 0x03, 0x00, 0x00, 0x00, 
0x01, 0x00, 0x00, 0x00, 0x04, 0x00, 0x00, 0x00, 0x36, 0xca, 0xff, 0xff, 
0x0c, 0x00, 0x00, 0x00, 0x1c, 0x00, 0x00, 0x00, 0x3c, 0x00, 0x00, 0x00, 
0x0f, 0x00, 0x00, 0x00, 0x73, 0x65, 0x72, 0x76, 0x69, 0x6e, 0x67, 0x5f, 
0x64, 0x65, 0x66, 0x61, 0x75, 0x6c, 0x74, 0x00, 0x01, 0x00, 0x00, 0x00, 
0x04, 0x00, 0x00, 0x00, 0x94, 0xff, 0xff, 0xff, 0x2b, 0x00, 0x00, 0x00, 
0x04, 0x00, 0x00, 0x00, 0x08, 0x00, 0x00, 0x00, 0x6f, 0x75, 0x74, 0x70, 
0x75, 0x74, 0x5f, 0x30, 0x00, 0x00, 0x00, 0x00, 0x01, 0x00, 0x00, 0x00, 
0x04, 0x00, 0x00, 0x00, 0x26, 0xce, 0xff, 0xff, 0x04, 0x00, 0x00, 0x00, 
0x0b, 0x00, 0x00, 0x00, 0x69, 0x6e, 0x70, 0x75, 0x74, 0x5f, 0x6c, 0x61, 
0x79, 0x65, 0x72, 0x00, 0x02, 0x00, 0x00, 0x00, 0x34, 0x00, 0x00, 0x00, 
0x04, 0x00, 0x00, 0x00, 0xdc, 0xff, 0xff, 0xff, 0x2e, 0x00, 0x00, 0x00, 
0x04, 0x00, 0x00, 0x00, 0x13, 0x00, 0x00, 0x00, 0x43, 0x4f, 0x4e, 0x56, 
0x45, 0x52, 0x53, 0x49, 0x4f, 0x4e, 0x5f, 0x4d, 0x45, 0x54, 0x41, 0x44, 
0x41, 0x54, 0x41, 0x00, 0x08, 0x00, 0x0c, 0x00, 0x08, 0x00, 0x04, 0x00, 
0x08, 0x00, 0x00, 0x00, 0x2d, 0x00, 0x00, 0x00, 0x04, 0x00, 0x00, 0x00, 
0x13, 0x00, 0x00, 0x00, 0x6d, 0x69, 0x6e, 0x5f, 0x72, 0x75, 0x6e, 0x74, 
0x69, 0x6d, 0x65, 0x5f, 0x76, 0x65, 0x72, 0x73, 0x69, 0x6f, 0x6e, 0x00, 
0x2f, 0x00, 0x00, 0x00, 0x08, 0x30, 0x00, 0x00, 0x00, 0x30, 0x00, 0x00, 
0xec, 0x2f, 0x00, 0x00, 0xd0, 0x2f, 0x00, 0x00, 0xbc, 0x2f, 0x00, 0x00, 
0xa0, 0x2f, 0x00, 0x00, 0x84, 0x2f, 0x00, 0x00, 0x68, 0x2f, 0x00, 0x00, 
0x4c, 0x2f, 0x00, 0x00, 0x30, 0x2f, 0x00, 0x00, 0x1c, 0x2f, 0x00, 0x00, 
0x14, 0x2f, 0x00, 0x00, 0x00, 0x2f, 0x00, 0x00, 0xe4, 0x2e, 0x00, 0x00, 
0xf4, 0x2c, 0x00, 0x00, 0x64, 0x2c, 0x00, 0x00, 0x54, 0x20, 0x00, 0x00, 
0xc4, 0x1f, 0x00, 0x00, 0xb4, 0x15, 0x00, 0x00, 0x64, 0x15, 0x00, 0x00, 
0x54, 0x01, 0x00, 0x00, 0x4c, 0x01, 0x00, 0x00, 0x44, 0x01, 0x00, 0x00, 
0x3c, 0x01, 0x00, 0x00, 0x34, 0x01, 0x00, 0x00, 0x2c, 0x01, 0x00, 0x00, 
0x24, 0x01, 0x00, 0x00, 0x1c, 0x01, 0x00, 0x00, 0x14, 0x01, 0x00, 0x00, 
0x0c, 0x01, 0x00, 0x00, 0x04, 0x01, 0x00, 0x00, 0xfc, 0x00, 0x00, 0x00, 
0xf4, 0x00, 0x00, 0x00, 0xec, 0x00, 0x00, 0x00, 0xe4, 0x00, 0x00, 0x00, 
0xdc, 0x00, 0x00, 0x00, 0xd4, 0x00, 0x00, 0x00, 0xcc, 0x00, 0x00, 0x00, 
0xc4, 0x00, 0x00, 0x00, 0xbc, 0x00, 0x00, 0x00, 0xb4, 0x00, 0x00, 0x00, 
0xac, 0x00, 0x00, 0x00, 0xa4, 0x00, 0x00, 0x00, 0x9c, 0x00, 0x00, 0x00, 
0x94, 0x00, 0x00, 0x00, 0x74, 0x00, 0x00, 0x00, 0x04, 0x00, 0x00, 0x00, 
0x5a, 0xcf, 0xff, 0xff, 0x04, 0x00, 0x00, 0x00, 0x60, 0x00, 0x00, 0x00, 
0x0c, 0x00, 0x00, 0x00, 0x08, 0x00, 0x0e, 0x00, 0x08, 0x00, 0x04, 0x00, 
0x08, 0x00, 0x00, 0x00, 0x10, 0x00, 0x00, 0x00, 0x28, 0x00, 0x00, 0x00, 
0x00, 0x00, 0x06, 0x00, 0x08, 0x00, 0x04, 0x00, 0x06, 0x00, 0x00, 0x00, 
0x04, 0x00, 0x00, 0x00, 0x01, 0x00, 0x00, 0x00, 0xeb, 0x03, 0x00, 0x00, 
0x0c, 0x00, 0x18, 0x00, 0x14, 0x00, 0x10, 0x00, 0x0c, 0x00, 0x04, 0x00, 
0x0c, 0x00, 0x00, 0x00, 0xae, 0x29, 0x83, 0x6d, 0x27, 0xd0, 0x73, 0x55, 
0x02, 0x00, 0x00, 0x00, 0x02, 0x00, 0x00, 0x00, 0x04, 0x00, 0x00, 0x00, 
0x06, 0x00, 0x00, 0x00, 0x32, 0x2e, 0x32, 0x30, 0x2e, 0x30, 0x00, 0x00, 
0xc6, 0xcf, 0xff, 0xff, 0x04, 0x00, 0x00, 0x00, 0x10, 0x00, 0x00, 0x00, 
0x31, 0x2e, 0x31, 0x34, 0x2e, 0x30, 0x00, 0x00, 0x00, 0x00, 0x00, 0x00, 
0x00, 0x00, 0x00, 0x00, 0x6c, 0xae, 0xff, 0xff, 0x70, 0xae, 0xff, 0xff, 
0x74, 0xae, 0xff, 0xff, 0x78, 0xae, 0xff, 0xff, 0x7c, 0xae, 0xff, 0xff, 
0x80, 0xae, 0xff, 0xff, 0x84, 0xae, 0xff, 0xff, 0x88, 0xae, 0xff, 0xff, 
0x8c, 0xae, 0xff, 0xff, 0x90, 0xae, 0xff, 0xff, 0x94, 0xae, 0xff, 0xff, 
0x98, 0xae, 0xff, 0xff, 0x9c, 0xae, 0xff, 0xff, 0xa0, 0xae, 0xff, 0xff, 
0xa4, 0xae, 0xff, 0xff, 0xa8, 0xae, 0xff, 0xff, 0xac, 0xae, 0xff, 0xff, 
0xb0, 0xae, 0xff, 0xff, 0xb4, 0xae, 0xff, 0xff, 0xb8, 0xae, 0xff, 0xff, 
0xbc, 0xae, 0xff, 0xff, 0xc0, 0xae, 0xff, 0xff, 0xc4, 0xae, 0xff, 0xff, 
0xc8, 0xae, 0xff, 0xff, 0x42, 0xd0, 0xff, 0xff, 0x04, 0x00, 0x00, 0x00, 
0x00, 0x14, 0x00, 0x00, 0x2b, 0xd7, 0x36, 0x49, 0x37, 0x29, 0x0a, 0xd1, 
0x25, 0x3e, 0x06, 0x27, 0x25, 0xe2, 0x1f, 0xd4, 0xea, 0x2b, 0xac, 0x08, 
0x04, 0xc0, 0x0f, 0x2c, 0xdc, 0x53, 0xc6, 0x28, 0xf8, 0xe1, 0xf4, 0x16, 
0xd0, 0x0d, 0x13, 0xfe, 0x16, 0x2a, 0xfb, 0x58, 0xe2, 0x1b, 0xdf, 0x00, 
0x06, 0x14, 0xfd, 0x23, 0xfe, 0x09, 0x0e, 0xd0, 0x41, 0xf9, 0x18, 0x17, 
0xfe, 0x18, 0xe5, 0xe9, 0xe1, 0x23, 0x2e, 0xfe, 0x11, 0x26, 0xda, 0x35, 
0xea, 0x1f, 0x18, 0x02, 0xe2, 0x04, 0x06, 0xd9, 0x0d, 0x1d, 0xc9, 0x13, 
0x35, 0xfb, 0xb3, 0x34, 0x26, 0xf8, 0xc3, 0xdf, 0x20, 0xf6, 0x10, 0xf7, 
0xea, 0x09, 0xcc, 0x35, 0xcc, 0x29, 0xcf, 0x21, 0xd0, 0x3b, 0xe0, 0xf7, 
0x15, 0xf6, 0xc8, 0x03, 0xc9, 0xb6, 0x19, 0xfb, 0xcc, 0xe9, 0x20, 0xc6, 
0xf6, 0x1b, 0xe4, 0x2a, 0xaa, 0xfd, 0xc3, 0xd3, 0xe2, 0x17, 0x02, 0xd8, 
0xef, 0x03, 0xe8, 0xc2, 0xce, 0xca, 0xc6, 0xb4, 0xe9, 0xcf, 0x0b, 0xed, 
0x10, 0x12, 0xe4, 0x12, 0x3b, 0x12, 0xd1, 0xc3, 0xcf, 0xb7, 0xce, 0xf3, 
0xd1, 0xd8, 0x1f, 0x02, 0xe6, 0x96, 0x16, 0x0f, 0xc9, 0xe8, 0xde, 0x1a, 
0xeb, 0xd3, 0xc7, 0xd3, 0x10, 0xc1, 0xb0, 0xa4, 0xb4, 0x9d, 0x11, 0xe6, 
0xc5, 0xa9, 0xf4, 0xdf, 0xb1, 0xa7, 0xc3, 0x1f, 0xbe, 0x00, 0xd5, 0x1c, 
0x05, 0xd4, 0xb4, 0xc8, 0xda, 0xd7, 0xe2, 0xe4, 0xd9, 0xcd, 0x0f, 0xe6, 
0xd4, 0xea, 0x15, 0xff, 0xc8, 0xd5, 0xd9, 0x37, 0x46, 0x31, 0xc5, 0x07, 
0xd7, 0xf8, 0xd2, 0x0c, 0xe3, 0x09, 0x35, 0x12, 0x46, 0x19, 0xdf, 0xfd, 
0x1e, 0x4f, 0x1b, 0xc2, 0xfb, 0x36, 0x2a, 0xfa, 0xd4, 0x0e, 0x08, 0xe4, 
0xd9, 0xec, 0xd0, 0x15, 0xd2, 0x46, 0xf6, 0x1b, 0xe1, 0xee, 0x0b, 0xbd, 
0xbe, 0x1c, 0x3f, 0x49, 0x2e, 0x3b, 0x12, 0x2c, 0xf7, 0xd2, 0x1e, 0x03, 
0x12, 0x3b, 0x0c, 0x35, 0x17, 0x2b, 0x34, 0xf5, 0x14, 0x09, 0x16, 0x35, 
0xf0, 0x20, 0xfe, 0x33, 0x36, 0x33, 0xef, 0x45, 0xf1, 0x4a, 0x08, 0xff, 
0x2d, 0xea, 0x10, 0x1b, 0x7f, 0xf8, 0xf1, 0x08, 0x32, 0x54, 0x44, 0x38, 
0x2e, 0x42, 0x04, 0xef, 0xe9, 0xda, 0x25, 0x21, 0x29, 0xf7, 0x14, 0x0a, 
0xe9, 0xda, 0x00, 0xff, 0x47, 0xfd, 0x09, 0x41, 0xeb, 0x42, 0xde, 0x04, 
0x40, 0x17, 0xe5, 0xdb, 0xf0, 0xd3, 0x03, 0x1e, 0x1f, 0x1f, 0x17, 0x3d, 
0x2a, 0x42, 0xdb, 0x3f, 0xf8, 0x57, 0x37, 0x08, 0x2b, 0x09, 0x24, 0xe8, 
0x52, 0x12, 0xf0, 0x2a, 0x33, 0x3a, 0x38, 0xf8, 0x0c, 0xeb, 0x23, 0x44, 
0xee, 0x29, 0x09, 0xf5, 0xd8, 0xf9, 0x20, 0xf7, 0x1b, 0xde, 0x0a, 0xcc, 
0x26, 0x08, 0xcd, 0x34, 0xfc, 0x09, 0x02, 0x51, 0xda, 0x35, 0xce, 0xd2, 
0x27, 0x09, 0xcc, 0xbb, 0x09, 0x03, 0x1e, 0xef, 0x2b, 0x26, 0xc2, 0xea, 
0xc5, 0xc8, 0xcd, 0x1c, 0xe0, 0x1f, 0xf3, 0x0c, 0x3e, 0x31, 0x1c, 0xf3, 
0xf0, 0xf3, 0xca, 0x1a, 0x12, 0xf7, 0x12, 0x18, 0xf9, 0x1a, 0x47, 0xf0, 
0x00, 0x14, 0x15, 0xd2, 0x17, 0x59, 0x39, 0x22, 0x27, 0xdf, 0xfb, 0xf9, 
0x1c, 0xd8, 0x02, 0x2f, 0xbd, 0xfa, 0x1e, 0x1b, 0x3d, 0xed, 0x20, 0x39, 
0x1f, 0xf0, 0xe4, 0xe9, 0x1c, 0xcc, 0x1a, 0x0b, 0x31, 0x14, 0xcf, 0xf9, 
0x26, 0x06, 0xb3, 0xc1, 0x0e, 0xe9, 0x08, 0xd3, 0xf3, 0x29, 0x2d, 0x29, 
0xcf, 0xef, 0x23, 0x19, 0x0b, 0x0e, 0xe0, 0x0e, 0x38, 0x24, 0xfb, 0x0a, 
0x10, 0xcd, 0x31, 0xe7, 0xe2, 0xfc, 0xf3, 0xf3, 0x41, 0x1c, 0x37, 0xfd, 
0x1b, 0xfd, 0xd5, 0x13, 0xf7, 0x40, 0x06, 0xcc, 0x25, 0x29, 0x31, 0x25, 
0xce, 0x21, 0x1e, 0x24, 0xfb, 0x1a, 0x44, 0xf4, 0x11, 0x09, 0xe8, 0x81, 
0x0b, 0x2f, 0x0f, 0x23, 0xc8, 0xca, 0xc0, 0xed, 0xbb, 0x1e, 0xaf, 0xd4, 
0x1d, 0xe1, 0xc3, 0x02, 0xe3, 0xbf, 0xcd, 0x0d, 0x00, 0x18, 0x1e, 0x0a, 
0x14, 0x19, 0x34, 0x13, 0x2e, 0xe9, 0xe0, 0x2a, 0x44, 0x31, 0x04, 0xce, 
0x19, 0x23, 0xdf, 0x28, 0xe3, 0x1f, 0x09, 0xf2, 0x3a, 0x18, 0xfc, 0x0d, 
0x12, 0xff, 0x10, 0xea, 0xcc, 0xdc, 0x05, 0xde, 0xc6, 0x03, 0xda, 0x31, 
0xd2, 0xf9, 0xdf, 0x9b, 0x08, 0xdc, 0xf2, 0xe1, 0xc2, 0xfc, 0xf7, 0xd6, 
0x1a, 0x0f, 0xab, 0xd3, 0x21, 0xe6, 0xcb, 0xf9, 0x1e, 0xc4, 0x0b, 0xae, 
0x02, 0xa8, 0xe7, 0x1e, 0xde, 0x0b, 0x19, 0x08, 0x58, 0xea, 0x30, 0x0d, 
0x15, 0x48, 0x07, 0xe0, 0xe0, 0x32, 0xef, 0x37, 0x07, 0xfb, 0xf1, 0x0a, 
0xd2, 0xf1, 0xf5, 0x07, 0xd3, 0xc8, 0xfe, 0xc6, 0x22, 0x04, 0x2e, 0xe7, 
0xe9, 0xfa, 0xfa, 0xb1, 0x06, 0xf1, 0xbd, 0xf4, 0xdb, 0x04, 0x3e, 0xa9, 
0xb8, 0xa5, 0xbe, 0xa7, 0x24, 0x24, 0x0c, 0x1e, 0x51, 0x6c, 0x2b, 0x41, 
0xbb, 0xd8, 0x47, 0xec, 0x1f, 0xe7, 0x02, 0x21, 0xdb, 0xce, 0x36, 0xef, 
0x55, 0xee, 0xfd, 0x28, 0xe7, 0x3a, 0x29, 0x2f, 0x14, 0xec, 0x16, 0xaa, 
0x07, 0xca, 0xec, 0x41, 0xba, 0xbf, 0x99, 0xf0, 0xc1, 0x19, 0x02, 0x3b, 
0xab, 0x35, 0xd9, 0xb1, 0x19, 0x21, 0x23, 0x1c, 0xaa, 0x30, 0x0c, 0xc6, 
0xd5, 0xb5, 0x1c, 0xba, 0x0c, 0xfd, 0xf2, 0x28, 0x08, 0xfc, 0xba, 0x04, 
0xf3, 0x02, 0x2d, 0xe2, 0x21, 0x58, 0x1c, 0x22, 0xc1, 0xf4, 0xc6, 0xf5, 
0x1d, 0x3e, 0x2d, 0x00, 0xd7, 0x0e, 0x19, 0xf4, 0x46, 0x2b, 0xe9, 0x4b, 
0xcb, 0xd2, 0x1e, 0x45, 0x19, 0x21, 0xf3, 0x30, 0x08, 0xbf, 0x14, 0xd4, 
0x20, 0xd7, 0xd0, 0x0f, 0xf6, 0xe6, 0xf6, 0xcb, 0x2f, 0xb5, 0xf3, 0x0f, 
0xee, 0x0f, 0xe6, 0x40, 0xc4, 0xff, 0x2a, 0xbe, 0x05, 0xce, 0xc7, 0xea, 
0x30, 0xd2, 0x09, 0x2f, 0x19, 0x22, 0xf0, 0x1c, 0x20, 0xe7, 0xe8, 0x33, 
0x29, 0x35, 0x23, 0x59, 0xc6, 0x27, 0xce, 0x20, 0x09, 0x7f, 0x49, 0xfd, 
0x69, 0x1e, 0xe2, 0x4d, 0xdd, 0x06, 0xdd, 0xab, 0xf6, 0x46, 0x08, 0xa7, 
0xea, 0x1b, 0xe0, 0x34, 0x0a, 0x48, 0x19, 0xca, 0xc6, 0x20, 0xb3, 0xa5, 
0x16, 0xbb, 0xe3, 0xa3, 0x30, 0x06, 0xca, 0x23, 0xcc, 0xfc, 0xe0, 0xa7, 
0xb3, 0xb1, 0xa4, 0x9f, 0xe0, 0x2e, 0x10, 0xec, 0x09, 0xeb, 0x1d, 0x4d, 
0xe0, 0xe3, 0x21, 0x3f, 0x06, 0xbe, 0xe6, 0xe8, 0xc3, 0x2f, 0xfb, 0xd6, 
0x04, 0x09, 0x42, 0xf4, 0x14, 0xee, 0xde, 0x07, 0xf9, 0xf3, 0x9d, 0x2a, 
0x30, 0xbb, 0xbb, 0xae, 0xe0, 0x2c, 0x07, 0xbf, 0x1b, 0x13, 0x22, 0xa4, 
0x39, 0xf8, 0xa1, 0xac, 0xff, 0x2b, 0xc3, 0xa9, 0xcd, 0xfb, 0xca, 0xfc, 
0xce, 0x14, 0x1e, 0x1b, 0xb1, 0x1e, 0xf9, 0xb1, 0xe9, 0x2b, 0xd2, 0x43, 
0x20, 0xfd, 0x56, 0x28, 0x1a, 0xe6, 0xf2, 0x1a, 0x43, 0xe7, 0x06, 0x38, 
0xb9, 0xef, 0xd7, 0x14, 0x49, 0x5a, 0xeb, 0x36, 0xf8, 0x0e, 0xdb, 0xbb, 
0x13, 0xda, 0xe1, 0xbe, 0x1a, 0x45, 0x10, 0x09, 0xca, 0x26, 0xe9, 0xdf, 
0x22, 0xe0, 0x0c, 0xe2, 0xd7, 0xde, 0x05, 0xcf, 0xe7, 0xf2, 0xdf, 0x04, 
0x41, 0x38, 0xfd, 0xff, 0x5d, 0x16, 0xda, 0xba, 0x08, 0x04, 0xe5, 0xf9, 
0x20, 0xb9, 0x3b, 0xae, 0xdf, 0x0a, 0x22, 0xaf, 0xf2, 0xf6, 0x1e, 0xaa, 
0xcd, 0xe2, 0x1f, 0xd0, 0x22, 0xc8, 0x06, 0xdd, 0xd6, 0x35, 0xed, 0xfb, 
0xc0, 0xa1, 0xd2, 0xa3, 0x9d, 0xa4, 0xa0, 0x91, 0xf7, 0xcb, 0x30, 0xb5, 
0xe1, 0x3c, 0x0e, 0x3b, 0x4e, 0x21, 0x11, 0x01, 0x48, 0x56, 0xe6, 0x4a, 
0x63, 0xe0, 0x08, 0xeb, 0x18, 0x0f, 0x02, 0x12, 0x3f, 0xc8, 0xae, 0x1c, 
0xba, 0xfd, 0x2e, 0x3d, 0xe7, 0xcc, 0xc4, 0xbf, 0x08, 0x1d, 0x85, 0x07, 
0x08, 0xe0, 0xe4, 0xe8, 0x08, 0x12, 0xfa, 0x14, 0xb7, 0xbb, 0xb9, 0xfe, 
0x0c, 0xf7, 0xec, 0xd0, 0xa9, 0x06, 0xff, 0xe4, 0xd1, 0xd0, 0xe3, 0xdd, 
0xb6, 0x15, 0xf5, 0xf6, 0x1b, 0x03, 0x48, 0x1d, 0x5c, 0xe7, 0x5b, 0x43, 
0x39, 0x40, 0x08, 0xec, 0x25, 0x4a, 0xcc, 0x11, 0x09, 0x18, 0xe4, 0x05, 
0x4f, 0xf5, 0xbd, 0x09, 0xd2, 0xd8, 0x57, 0x11, 0x38, 0xe4, 0x0d, 0x1b, 
0xf3, 0x2e, 0x16, 0x1d, 0xb1, 0x2c, 0xfa, 0xca, 0xe1, 0xc2, 0x12, 0xda, 
0xd4, 0x04, 0xdc, 0x00, 0x0e, 0xce, 0xbd, 0xf8, 0x02, 0xf0, 0xcc, 0xe5, 
0x0f, 0xd1, 0x09, 0xce, 0xfd, 0x08, 0xc8, 0xf1, 0xd4, 0xd8, 0x42, 0x15, 
0x02, 0xda, 0x24, 0xc7, 0x39, 0x5b, 0x32, 0xe8, 0x40, 0x5e, 0xe5, 0x22, 
0x52, 0x47, 0x57, 0x69, 0x2f, 0xc1, 0x0c, 0xb2, 0x3d, 0x6f, 0x35, 0x24, 
0x63, 0x3b, 0x05, 0x22, 0x3d, 0x27, 0x2a, 0xb8, 0x25, 0x39, 0xe6, 0xad, 
0xd1, 0xaa, 0xde, 0xf3, 0xe6, 0xc7, 0x16, 0x12, 0xd3, 0xbd, 0x81, 0xb8, 
0x17, 0xe6, 0xcf, 0xf4, 0x16, 0x50, 0x08, 0x38, 0x2f, 0xf6, 0x46, 0x56, 
0xca, 0x2b, 0x03, 0x49, 0x54, 0xe0, 0xda, 0x37, 0x21, 0xdb, 0xdb, 0x18, 
0x36, 0xfc, 0x0d, 0xcb, 0xe3, 0xf2, 0xd3, 0x15, 0x58, 0xc5, 0xe1, 0xbc, 
0x07, 0x1c, 0x12, 0x2b, 0x47, 0x5e, 0xe2, 0x06, 0x47, 0xf0, 0xb0, 0x08, 
0x41, 0x01, 0xcf, 0x2f, 0x1d, 0xbf, 0xdc, 0xa2, 0x27, 0x09, 0x35, 0xc6, 
0x9e, 0xb6, 0xd6, 0xb3, 0xc9, 0x3e, 0x1b, 0x2b, 0x55, 0xf0, 0x39, 0x1f, 
0xd7, 0x2e, 0x00, 0xe4, 0x0e, 0xe1, 0x16, 0x25, 0xfb, 0x4e, 0x20, 0x1c, 
0x1c, 0x2d, 0xea, 0xdc, 0x2d, 0x3f, 0x1a, 0xfb, 0x23, 0xf5, 0x33, 0x4b, 
0x58, 0x0c, 0x01, 0x1f, 0x2a, 0xc4, 0x9b, 0xbf, 0x55, 0xd0, 0x37, 0x9d, 
0xb1, 0xb2, 0x03, 0xed, 0x14, 0x2b, 0xfe, 0x3e, 0xc1, 0x24, 0x62, 0xcb, 
0x3f, 0xe8, 0x3f, 0xf5, 0xc2, 0xbf, 0xd9, 0xde, 0xea, 0xb6, 0x44, 0xe7, 
0xc1, 0xd1, 0xde, 0xc4, 0xe4, 0x0f, 0xf4, 0xd6, 0x1d, 0x34, 0x2e, 0x43, 
0xfc, 0xb2, 0xd5, 0x36, 0xb3, 0xbd, 0x01, 0xdb, 0xfc, 0xb3, 0x18, 0x81, 
0xc3, 0x4b, 0xa5, 0xd1, 0xca, 0xd3, 0xea, 0xa1, 0x0f, 0x2e, 0x89, 0x10, 
0x47, 0xe6, 0x0d, 0xf4, 0x47, 0x40, 0x3e, 0x1a, 0xe5, 0x35, 0x37, 0x34, 
0xf6, 0x6d, 0xf9, 0x45, 0x11, 0x4e, 0x0b, 0xe2, 0x3d, 0x78, 0x0e, 0x10, 
0x3b, 0x2d, 0x51, 0xf8, 0xfa, 0xc5, 0xce, 0x54, 0xdb, 0x01, 0x52, 0x02, 
0xed, 0x0d, 0xeb, 0xbf, 0x0b, 0xb6, 0xf4, 0xf7, 0x3d, 0x9f, 0x18, 0x1c, 
0xaa, 0x33, 0xcf, 0xc2, 0x3f, 0xe0, 0x19, 0x32, 0xcc, 0x24, 0xc7, 0xe5, 
0x8f, 0xd2, 0xa7, 0xaa, 0xc9, 0x38, 0x3a, 0x57, 0x1a, 0xb6, 0x3f, 0xe7, 
0x14, 0x4c, 0xf1, 0x69, 0x57, 0x03, 0xc6, 0xcc, 0x90, 0x2c, 0xd4, 0x13, 
0x12, 0xce, 0x5c, 0xf5, 0xf0, 0x28, 0xae, 0xb5, 0xf2, 0x10, 0x1d, 0xf1, 
0xfc, 0xdc, 0x06, 0xdc, 0x4e, 0x2e, 0x32, 0x8c, 0xaa, 0x4c, 0xc4, 0x3d, 
0x38, 0xda, 0x35, 0xa5, 0x35, 0xf5, 0xf9, 0xac, 0xb0, 0x0d, 0x1f, 0xeb, 
0xf8, 0x22, 0x40, 0xc2, 0xdc, 0xd5, 0xa3, 0x0d, 0x1e, 0x83, 0x4e, 0x1c, 
0xc8, 0xfd, 0xc1, 0x50, 0xd1, 0xe1, 0xf0, 0x43, 0xe3, 0x3a, 0xc3, 0xf3, 
0xad, 0x53, 0x32, 0x32, 0x3e, 0xca, 0x54, 0xb8, 0x4a, 0x1e, 0xd6, 0x03, 
0x36, 0xb7, 0x93, 0xc8, 0xde, 0x5a, 0x18, 0x22, 0xdf, 0xaa, 0x08, 0xc6, 
0xd8, 0xe1, 0xff, 0x4a, 0x28, 0x29, 0x49, 0x1f, 0xac, 0x42, 0xab, 0xd6, 
0xa2, 0xd8, 0x2d, 0xf5, 0x2f, 0xc1, 0xfc, 0xf7, 0xa4, 0x20, 0x14, 0x93, 
0xd5, 0xb4, 0x50, 0xad, 0x37, 0xe2, 0x65, 0x09, 0xf0, 0x68, 0xe1, 0xd0, 
0x04, 0x74, 0x3f, 0x2c, 0xbd, 0x00, 0xa4, 0xfb, 0x09, 0xf6, 0xec, 0xb7, 
0x0d, 0x21, 0xd3, 0xab, 0x46, 0xc8, 0xb5, 0xb8, 0xdf, 0x1e, 0x31, 0x0c, 
0x10, 0xb1, 0x19, 0xf6, 0x0a, 0x14, 0xb9, 0x2a, 0x29, 0xc3, 0x04, 0xbe, 
0xb2, 0xdb, 0x20, 0x31, 0xd0, 0x44, 0xeb, 0xae, 0x0f, 0xc3, 0x8b, 0xec, 
0xd8, 0xc5, 0xf1, 0x5f, 0xd2, 0x14, 0xd1, 0xb9, 0x4f, 0xe4, 0xa3, 0xb8, 
0xf0, 0xa6, 0x20, 0x9c, 0xbb, 0xcc, 0x16, 0xef, 0xb7, 0xb0, 0x10, 0x20, 
0xc8, 0x38, 0x24, 0xf4, 0x35, 0x27, 0xf3, 0x48, 0xaf, 0xff, 0xaf, 0xf4, 
0xf5, 0x18, 0x2f, 0xdf, 0xf0, 0xed, 0xe8, 0xbe, 0xce, 0xe3, 0x2c, 0xd6, 
0xfd, 0x16, 0x5c, 0xdf, 0xd5, 0xda, 0x38, 0xd0, 0xef, 0xe8, 0xf7, 0x66, 
0xec, 0xe8, 0x81, 0xa8, 0xb7, 0xae, 0xec, 0x34, 0xdc, 0xcf, 0xcf, 0x31, 
0xdc, 0x2a, 0xf9, 0x44, 0x2f, 0xd3, 0xf0, 0xb7, 0x0a, 0x4b, 0xc7, 0x36, 
0xda, 0x3d, 0xf6, 0x14, 0x3e, 0xcb, 0xa2, 0xed, 0xf0, 0xdf, 0xbd, 0xde, 
0xf6, 0xb9, 0xf5, 0xc7, 0x20, 0x42, 0x2f, 0xf1, 0x0d, 0xe9, 0xf2, 0xa1, 
0x17, 0xde, 0xe7, 0x0c, 0x58, 0x57, 0x40, 0x06, 0x2c, 0x03, 0x49, 0x6c, 
0x70, 0x5f, 0x36, 0x7f, 0x47, 0xc3, 0xed, 0xde, 0xee, 0xf4, 0x10, 0x37, 
0x20, 0x0f, 0x56, 0x4d, 0xf7, 0x1a, 0x20, 0xfd, 0x0e, 0x3e, 0xe0, 0xf4, 
0x30, 0x01, 0xdc, 0xd4, 0x1e, 0xff, 0xb8, 0xb3, 0x38, 0x41, 0x08, 0x2e, 
0xae, 0xc7, 0xcf, 0x16, 0xff, 0xc9, 0x55, 0x50, 0x0c, 0x10, 0xbb, 0x29, 
0xfc, 0xc5, 0xe0, 0x8d, 0xb4, 0xf2, 0xa7, 0xfe, 0x12, 0xbf, 0xa7, 0x30, 
0x01, 0x3e, 0x38, 0xd3, 0xef, 0x3b, 0x0c, 0x2e, 0x69, 0x19, 0x06, 0x9c, 
0x15, 0xaa, 0x31, 0x3a, 0x32, 0x42, 0x25, 0x21, 0x4b, 0x65, 0x24, 0x5f, 
0x0d, 0xfb, 0x22, 0xea, 0x63, 0x17, 0xcd, 0x3a, 0xd6, 0xc2, 0xdc, 0xcc, 
0xd8, 0xce, 0xf6, 0x47, 0x33, 0xd5, 0xd8, 0x25, 0xf7, 0xc6, 0xda, 0xf3, 
0xe6, 0xc8, 0xd1, 0x03, 0x14, 0x12, 0xc6, 0xc7, 0x0c, 0x9d, 0xe5, 0xaa, 
0xdc, 0x05, 0xed, 0x0a, 0xe6, 0xc9, 0xae, 0x17, 0x36, 0xb1, 0x1d, 0x5f, 
0xfe, 0x19, 0xd7, 0xf8, 0xd0, 0x32, 0xdf, 0x45, 0x37, 0x09, 0xf4, 0x4d, 
0x1d, 0x02, 0x5b, 0x4e, 0x14, 0x2c, 0x32, 0x04, 0x28, 0x1f, 0x50, 0x18, 
0x40, 0x53, 0x5e, 0x50, 0x04, 0x0e, 0x16, 0xd8, 0x0f, 0x03, 0x35, 0x15, 
0x32, 0x3a, 0xe4, 0x55, 0x1e, 0xdc, 0xd0, 0xb2, 0x18, 0xfe, 0xab, 0xd8, 
0xcd, 0x00, 0xde, 0xf1, 0x0d, 0xe4, 0xc8, 0xe0, 0xd9, 0xc3, 0xd4, 0xf0, 
0x36, 0xe5, 0x1f, 0x36, 0x24, 0xbd, 0xc7, 0x0b, 0x17, 0x31, 0x34, 0x4a, 
0x76, 0x4f, 0xdf, 0x0b, 0x50, 0x22, 0x28, 0x52, 0x6a, 0x02, 0x5d, 0x7f, 
0x2f, 0x61, 0x05, 0x67, 0xdd, 0xd4, 0x0f, 0xba, 0xf1, 0xff, 0xbf, 0xb3, 
0x4f, 0xc9, 0xd5, 0xfa, 0xdd, 0x22, 0x60, 0xfe, 0xe8, 0x02, 0xbd, 0x0e, 
0xf3, 0xa1, 0x09, 0x4f, 0x2f, 0xd9, 0xbb, 0xf5, 0x0a, 0xf4, 0x05, 0xaa, 
0x2f, 0xf9, 0x50, 0xf3, 0x1f, 0x3e, 0x54, 0x07, 0xe8, 0x22, 0xc5, 0xaf, 
0xd7, 0xcb, 0x24, 0x25, 0x14, 0x6d, 0xd1, 0x12, 0xe2, 0x2f, 0x5d, 0x05, 
0x20, 0x70, 0xff, 0x20, 0x3c, 0x27, 0x22, 0xdd, 0xdf, 0xd1, 0x2b, 0xed, 
0x1d, 0x1b, 0xba, 0x12, 0x11, 0x37, 0xd9, 0xc0, 0x0f, 0x5a, 0x69, 0xf9, 
0xb8, 0xce, 0x0a, 0x22, 0xee, 0x12, 0xdf, 0xc1, 0xdb, 0xf6, 0xbf, 0x20, 
0x15, 0xfc, 0xb4, 0xef, 0xd6, 0xe2, 0x2d, 0x24, 0xfd, 0xe6, 0x72, 0x2b, 
0x3d, 0x12, 0xdd, 0x1e, 0xd6, 0xc3, 0x0c, 0x19, 0x64, 0x51, 0x49, 0x44, 
0xf7, 0x3a, 0xdb, 0xe4, 0x71, 0x77, 0x59, 0xd0, 0xf0, 0xed, 0x21, 0xdb, 
0x1a, 0x37, 0x13, 0xaa, 0x03, 0xc8, 0x9c, 0x3a, 0xc3, 0xde, 0xc0, 0xca, 
0x1f, 0x36, 0x18, 0xb9, 0xeb, 0x23, 0xf9, 0x31, 0xb9, 0xb7, 0x49, 0x22, 
0xea, 0x2a, 0xaf, 0x24, 0x01, 0xfc, 0x24, 0xe7, 0xe9, 0x0f, 0xf4, 0x32, 
0x15, 0x28, 0x6c, 0x21, 0x28, 0xef, 0x1d, 0xe8, 0x0a, 0xec, 0xfc, 0x39, 
0x4a, 0xf6, 0x16, 0x1e, 0x4c, 0x04, 0xcf, 0xf9, 0xd3, 0xd1, 0xb2, 0x29, 
0xe4, 0x1a, 0x8b, 0xb2, 0x25, 0xab, 0xf0, 0xdc, 0xc3, 0x1a, 0xc0, 0x49, 
0x17, 0xd4, 0xbc, 0x0a, 0x03, 0x4e, 0xeb, 0x1d, 0x3f, 0xca, 0xbb, 0xed, 
0x2e, 0x15, 0xd4, 0xed, 0x57, 0xfa, 0xbf, 0xd9, 0xd0, 0xef, 0xe9, 0x3f, 
0x01, 0xc0, 0xdb, 0x31, 0xc1, 0x41, 0xf8, 0x58, 0x3b, 0x3b, 0xe1, 0x9d, 
0x13, 0x07, 0x2f, 0x04, 0xdb, 0xb3, 0x20, 0xc8, 0xef, 0xda, 0xff, 0xf1, 
0xd0, 0x00, 0xbe, 0x0d, 0xb5, 0xda, 0xbc, 0xe3, 0x0b, 0xb4, 0x2b, 0xdb, 
0xf9, 0x9a, 0xbf, 0x1d, 0xf2, 0xbc, 0xc5, 0x22, 0x37, 0x38, 0xcb, 0x48, 
0xcd, 0xe5, 0x1c, 0x42, 0xf0, 0xd9, 0x5d, 0xda, 0xd7, 0x0e, 0xc4, 0x13, 
0xb9, 0xcf, 0xb1, 0x31, 0xff, 0x0e, 0xf8, 0xc0, 0x96, 0xc1, 0x68, 0x08, 
0x12, 0x24, 0x3b, 0x1f, 0x13, 0xea, 0xb9, 0xe3, 0x10, 0x95, 0x21, 0x81, 
0xa9, 0x1a, 0xfb, 0xc5, 0xcf, 0xea, 0xc3, 0x2a, 0xf6, 0xf7, 0xfd, 0xf9, 
0xcd, 0xeb, 0x0b, 0x27, 0xca, 0xee, 0x51, 0xb8, 0x11, 0xcb, 0xb2, 0x16, 
0x08, 0x1c, 0xda, 0x12, 0x2c, 0xf3, 0x32, 0xc5, 0xc7, 0x3a, 0xf8, 0xd4, 
0x18, 0xf6, 0x22, 0x1c, 0x29, 0xe6, 0x1a, 0x03, 0xf4, 0x3d, 0xbe, 0xb5, 
0x4b, 0xcd, 0x32, 0x0f, 0x1b, 0x04, 0xef, 0x60, 0x58, 0xfa, 0x3c, 0x08, 
0xab, 0xdb, 0xd7, 0xac, 0x03, 0x20, 0xbf, 0xc5, 0xe6, 0x0a, 0xbb, 0xb8, 
0x05, 0x24, 0xd2, 0xe4, 0xd5, 0x10, 0xa0, 0x0a, 0x13, 0xb2, 0xf2, 0xcb, 
0xf6, 0x0d, 0xb6, 0xee, 0xe8, 0xea, 0xfe, 0x48, 0x26, 0xe8, 0xd9, 0x0e, 
0x3e, 0x42, 0x3d, 0x0f, 0xd7, 0x34, 0x2d, 0xcc, 0xc3, 0x14, 0xe3, 0x18, 
0xf8, 0x12, 0x38, 0xe2, 0x03, 0xf2, 0x57, 0x05, 0x10, 0x05, 0x2f, 0x59, 
0xef, 0x04, 0x0f, 0x08, 0xae, 0x02, 0x32, 0x03, 0xd7, 0xb3, 0xe7, 0x08, 
0xbe, 0xd6, 0xe7, 0x13, 0x04, 0xe9, 0x04, 0xd1, 0x0f, 0x01, 0xec, 0xec, 
0xda, 0xbf, 0x24, 0x2c, 0x27, 0xe5, 0x0d, 0xc5, 0xcc, 0x37, 0x0a, 0xd3, 
0x3d, 0x34, 0x52, 0x30, 0xfb, 0x63, 0xfc, 0xc3, 0xcc, 0x0a, 0xde, 0xd7, 
0xed, 0x3f, 0xee, 0xd9, 0x57, 0xdb, 0x07, 0xcd, 0x38, 0x1c, 0x18, 0x21, 
0x52, 0x43, 0x57, 0x5f, 0x13, 0x37, 0xfe, 0x21, 0x09, 0xa6, 0xc8, 0xc9, 
0x07, 0xb5, 0xcf, 0x2f, 0xd7, 0xd3, 0xb1, 0xe8, 0x0d, 0x3a, 0xff, 0xea, 
0x1b, 0x1e, 0x1a, 0x14, 0xf5, 0xdc, 0xef, 0xf2, 0xf8, 0xdc, 0xc3, 0x1e, 
0x4b, 0xbb, 0x15, 0x30, 0x31, 0xd4, 0x02, 0x35, 0xfa, 0xbf, 0x1c, 0xd5, 
0x23, 0x24, 0xe7, 0xd8, 0x11, 0x20, 0x05, 0xaf, 0xfb, 0x24, 0xce, 0x20, 
0x05, 0x29, 0x05, 0x42, 0x02, 0x5e, 0x5e, 0x75, 0x59, 0x49, 0xc6, 0x08, 
0x07, 0x44, 0xc4, 0xcf, 0x16, 0xb0, 0xe6, 0x32, 0xc0, 0xdd, 0xfd, 0xd8, 
0x1f, 0x15, 0xef, 0x40, 0xe1, 0xd1, 0x3d, 0xd3, 0xd1, 0x2c, 0xe1, 0xd1, 
0x4b, 0xd1, 0x5f, 0x34, 0x21, 0xb6, 0x0b, 0x24, 0x01, 0x02, 0xe5, 0x18, 
0xef, 0xff, 0x09, 0x1d, 0xe2, 0x00, 0x33, 0x58, 0x42, 0xf2, 0x05, 0xed, 
0x01, 0x2b, 0x1c, 0x19, 0xf4, 0xf9, 0xee, 0x2d, 0x32, 0x3f, 0x2b, 0xe7, 
0x0c, 0xdb, 0x59, 0x05, 0x3f, 0xe9, 0x4f, 0x6a, 0xfb, 0xff, 0x4d, 0xf6, 
0xd1, 0xcb, 0x2f, 0xdf, 0x37, 0x11, 0x1d, 0xdb, 0xbf, 0x6d, 0x3c, 0x28, 
0x19, 0xd2, 0x7f, 0x34, 0xf8, 0x09, 0x16, 0x52, 0x3b, 0x25, 0xf4, 0x7c, 
0x65, 0x63, 0xfc, 0x5c, 0xe4, 0xd8, 0xf6, 0x3f, 0xea, 0xbc, 0xe4, 0x56, 
0x0d, 0xa8, 0xcf, 0x3d, 0x30, 0x34, 0xae, 0xe7, 0xa0, 0xec, 0xbc, 0x1d, 
0x7d, 0x68, 0xbe, 0x1f, 0xcf, 0xe4, 0xd1, 0x0f, 0x2a, 0x0a, 0xd2, 0x43, 
0xf1, 0x17, 0xff, 0xc6, 0xb8, 0x06, 0x1d, 0xbd, 0xd6, 0x2c, 0xd8, 0x30, 
0xc9, 0x24, 0x51, 0x66, 0xf3, 0x71, 0x43, 0x50, 0x70, 0x14, 0xd1, 0x06, 
0x44, 0x1c, 0x10, 0xc1, 0x1a, 0x08, 0x36, 0x05, 0x0e, 0x46, 0x19, 0x01, 
0x00, 0xcd, 0x32, 0xd8, 0x39, 0x04, 0x4f, 0x29, 0xc3, 0x2b, 0x0d, 0xad, 
0x0b, 0xbc, 0xd5, 0xe7, 0xf6, 0x03, 0xf7, 0x32, 0xc8, 0x3f, 0xea, 0x13, 
0x57, 0x0d, 0x1e, 0x0c, 0x35, 0xb3, 0xb1, 0xee, 0xb3, 0x03, 0xbd, 0xba, 
0xda, 0xa7, 0x1c, 0xd5, 0x4c, 0x0d, 0x51, 0x11, 0xdb, 0x0b, 0xeb, 0x1f, 
0x67, 0xd0, 0x17, 0x08, 0xd1, 0xb9, 0xb9, 0x01, 0x33, 0x28, 0xfe, 0xc0, 
0xae, 0x27, 0x2b, 0xa1, 0xac, 0xa4, 0x3a, 0xc8, 0xe1, 0x06, 0x33, 0x0a, 
0x05, 0xb8, 0xd8, 0xbb, 0xf1, 0x98, 0xe2, 0x2b, 0x12, 0xfd, 0x3c, 0xd7, 
0xca, 0x13, 0x9c, 0xc6, 0xc1, 0x4c, 0xf4, 0xd7, 0xc0, 0x56, 0x0c, 0x29, 
0x0d, 0xc3, 0x10, 0xc8, 0x18, 0x3b, 0x38, 0x17, 0xeb, 0x1b, 0x03, 0x4d, 
0xb4, 0xca, 0xed, 0x34, 0xe0, 0x1f, 0x0b, 0x19, 0x08, 0xe3, 0xb7, 0xfe, 
0x28, 0xdc, 0xb7, 0xe1, 0xa6, 0xe1, 0xb6, 0x81, 0xb8, 0x2e, 0xd2, 0xf2, 
0x26, 0x2a, 0x07, 0xe8, 0xb6, 0x36, 0xec, 0x3d, 0x0b, 0xd4, 0xca, 0x59, 
0xe6, 0xf1, 0x2d, 0x07, 0xb7, 0x9e, 0x99, 0xc6, 0xda, 0xcb, 0x10, 0xec, 
0x4c, 0xc4, 0xcb, 0x8d, 0xe2, 0xdf, 0x04, 0xe3, 0xb5, 0xa0, 0x22, 0xd5, 
0xd2, 0xf8, 0x42, 0xc5, 0x24, 0x49, 0x4f, 0xe5, 0xe4, 0x0e, 0x02, 0xfd, 
0x18, 0x9c, 0xd7, 0xf3, 0xd7, 0xb0, 0x18, 0xa1, 0x0f, 0x9a, 0xda, 0xd4, 
0x97, 0xda, 0xf1, 0x15, 0x3b, 0x23, 0x22, 0x56, 0x5e, 0x45, 0x2f, 0x0c, 
0xfe, 0xf5, 0x18, 0xfd, 0xde, 0x5b, 0xbd, 0xc4, 0x61, 0xd9, 0xec, 0x55, 
0x47, 0x4a, 0xbc, 0x26, 0x39, 0xe6, 0x11, 0xaf, 0xd1, 0x22, 0xf3, 0x26, 
0xe0, 0x0d, 0x19, 0x24, 0x43, 0x38, 0x1a, 0x3c, 0x65, 0x40, 0x28, 0xe2, 
0xfb, 0x3a, 0x48, 0x47, 0xe7, 0xd1, 0x49, 0x64, 0x69, 0xcb, 0xfe, 0x61, 
0x19, 0x0d, 0xe6, 0xcc, 0x20, 0x20, 0xcd, 0xcb, 0xc8, 0xef, 0xf4, 0x1d, 
0x28, 0x51, 0x4c, 0x30, 0x1a, 0xb9, 0x59, 0x40, 0xe6, 0xd7, 0x9a, 0x19, 
0xbc, 0x2f, 0x22, 0x26, 0x38, 0xd3, 0xcd, 0xf4, 0x28, 0x0a, 0xe8, 0xb8, 
0x08, 0x49, 0xf3, 0x4f, 0x26, 0x11, 0x3e, 0xb1, 0x0d, 0x1e, 0x39, 0xf6, 
0xea, 0xde, 0x45, 0xed, 0x53, 0x54, 0x68, 0xf7, 0x19, 0xd8, 0x2f, 0x03, 
0x13, 0x59, 0x3a, 0xf5, 0xdc, 0x04, 0xd6, 0x08, 0xea, 0x3e, 0x3f, 0x40, 
0x50, 0xcf, 0x19, 0x62, 0x69, 0x25, 0x0c, 0x40, 0x6d, 0xec, 0x3a, 0x7f, 
0x6e, 0x18, 0xb3, 0xc1, 0xb7, 0xa2, 0x55, 0x0f, 0xb1, 0x90, 0xda, 0xb4, 
0x95, 0x25, 0xc6, 0xd5, 0xfe, 0x0a, 0x26, 0x46, 0x54, 0xd7, 0xae, 0xc4, 
0xa6, 0xd3, 0x07, 0xde, 0xec, 0xb1, 0xf2, 0xce, 0xf1, 0xd1, 0xef, 0xf6, 
0x87, 0xbc, 0xf8, 0xe5, 0xbf, 0xc6, 0x23, 0xeb, 0x45, 0xcf, 0xdf, 0xef, 
0xaf, 0x12, 0xb6, 0x2c, 0xe2, 0xc3, 0x42, 0xf7, 0x2e, 0x5f, 0xcb, 0xe3, 
0xeb, 0x3c, 0x0e, 0x06, 0x45, 0x20, 0xd8, 0x1c, 0xbf, 0xb8, 0xb0, 0x41, 
0xac, 0xf3, 0xea, 0xaf, 0xc2, 0x0b, 0x0e, 0xcf, 0xf0, 0xb2, 0xaf, 0xc5, 
0xb4, 0xf6, 0xf6, 0x18, 0x02, 0x33, 0x21, 0xae, 0xcc, 0xf1, 0x52, 0x3d, 
0xa7, 0x97, 0x92, 0xdb, 0xc4, 0xb1, 0x0d, 0x42, 0x1b, 0x8a, 0x9b, 0xc4, 
0xe3, 0x9d, 0xa6, 0xf1, 0xa9, 0xae, 0x0b, 0x8a, 0x32, 0x21, 0x54, 0xf1, 
0x65, 0x1c, 0x1b, 0xd1, 0xdd, 0x3b, 0x71, 0x2f, 0x00, 0xfe, 0x07, 0xb6, 
0x21, 0x02, 0xe9, 0xc8, 0x47, 0x20, 0xae, 0xe5, 0xee, 0x2e, 0xab, 0x36, 
0xfd, 0xc3, 0xb1, 0x5a, 0x2a, 0xb4, 0xd2, 0x10, 0x32, 0xeb, 0xc8, 0xaf, 
0xd1, 0xbe, 0xa2, 0x36, 0x2b, 0xff, 0x10, 0xda, 0x89, 0x20, 0xac, 0xe0, 
0x9d, 0xf0, 0x8d, 0x97, 0x8e, 0xd7, 0x32, 0xc1, 0xcf, 0x42, 0x27, 0xa2, 
0xab, 0x11, 0x24, 0x60, 0xb0, 0xfb, 0x1f, 0xd2, 0x46, 0x2d, 0xc8, 0x3b, 
0x25, 0x3b, 0xe1, 0x0f, 0xd4, 0x15, 0x13, 0x00, 0xe3, 0x1c, 0xf0, 0xfe, 
0xf1, 0x1c, 0xc9, 0xdf, 0xd4, 0xf3, 0xec, 0x30, 0x34, 0x2f, 0x46, 0x28, 
0x38, 0xfb, 0xfb, 0x1a, 0xc1, 0xce, 0xcd, 0xcf, 0xfe, 0xf6, 0xf0, 0x04, 
0xc0, 0xdb, 0x35, 0xe2, 0x29, 0x13, 0xe7, 0x04, 0x1e, 0x1f, 0xe7, 0xf6, 
0x0b, 0x0e, 0x30, 0x1f, 0x3d, 0x58, 0x45, 0x4c, 0x0f, 0x56, 0x1d, 0x2f, 
0x12, 0x4c, 0x61, 0x53, 0x35, 0x35, 0xf6, 0x1a, 0x04, 0xc9, 0x1f, 0xdd, 
0xee, 0x0b, 0xd8, 0xfb, 0xc5, 0x03, 0x12, 0x28, 0x14, 0x2f, 0xc7, 0xe0, 
0x3d, 0xd6, 0xdf, 0xf4, 0x1b, 0x3d, 0xf7, 0x29, 0xeb, 0x0f, 0x0a, 0xf1, 
0x21, 0xc9, 0x0f, 0xdf, 0xe4, 0xe4, 0xf1, 0xdf, 0xf8, 0x12, 0xcd, 0xec, 
0xc9, 0xc4, 0xec, 0x04, 0xfe, 0xe6, 0x0b, 0xce, 0x2a, 0xcb, 0xe0, 0x43, 
0x05, 0xe5, 0x12, 0x41, 0x5d, 0x1b, 0x5f, 0x7f, 0x38, 0xeb, 0xc0, 0xca, 
0x10, 0xc4, 0xd3, 0x05, 0xea, 0xdc, 0x07, 0xf8, 0xeb, 0xe5, 0xb6, 0xd7, 
0xf8, 0xf3, 0xc0, 0xe5, 0x30, 0xca, 0xe8, 0xe0, 0x15, 0x16, 0x24, 0x15, 
0xca, 0x0d, 0xea, 0xf3, 0x0f, 0x25, 0x20, 0x25, 0xc3, 0x15, 0x2b, 0x01, 
0x12, 0x04, 0x1f, 0xdd, 0xd1, 0xe0, 0x0f, 0x21, 0x0f, 0xfd, 0x2f, 0xd7, 
0x39, 0xe3, 0x1a, 0x47, 0x29, 0x1d, 0x1b, 0x23, 0x0c, 0x2b, 0x15, 0x52, 
0x2d, 0xf2, 0xee, 0xd5, 0xc4, 0xde, 0xc7, 0x1c, 0xfa, 0x05, 0xca, 0xb9, 
0xda, 0xe5, 0x09, 0xd5, 0x11, 0x09, 0x1b, 0xd6, 0x1b, 0xfc, 0xd8, 0x15, 
0xcc, 0x1e, 0x2a, 0x16, 0xcc, 0xe5, 0x03, 0xbd, 0xed, 0xef, 0xc4, 0xfb, 
0xd8, 0xf9, 0x11, 0x20, 0x17, 0x33, 0x02, 0x06, 0x37, 0xc7, 0x04, 0xbd, 
0x0f, 0x0b, 0x0c, 0xfe, 0x3d, 0xed, 0x45, 0x0e, 0x30, 0xec, 0x42, 0x25, 
0x57, 0x53, 0xff, 0x61, 0x1f, 0x32, 0x1b, 0xb5, 0x0b, 0xb3, 0xec, 0xc0, 
0x10, 0xe4, 0x21, 0xd7, 0xf2, 0x1a, 0xcb, 0xbf, 0xbc, 0x17, 0xf4, 0xf5, 
0xf6, 0xc8, 0xd5, 0x2b, 0x00, 0x13, 0xe6, 0xd0, 0xf1, 0xe5, 0xf3, 0xe1, 
0xdc, 0xe6, 0x29, 0xcf, 0xcf, 0xe6, 0xd4, 0xc5, 0xdf, 0xcd, 0x29, 0xe4, 
0xe6, 0x1b, 0x0f, 0x17, 0x1f, 0xe1, 0x14, 0xfb, 0x12, 0x19, 0xf9, 0xd1, 
0xd0, 0x06, 0x15, 0x1b, 0x00, 0x33, 0x2b, 0x5e, 0x06, 0x2a, 0xed, 0x1a, 
0x5b, 0x24, 0x65, 0x11, 0xfd, 0x64, 0x3f, 0xe0, 0x10, 0x0c, 0xbe, 0xf3, 
0xea, 0xe3, 0x37, 0x03, 0x04, 0x48, 0x4b, 0xdc, 0xe7, 0xf5, 0xd9, 0x1f, 
0xb1, 0xba, 0x14, 0xeb, 0xd9, 0xf2, 0xf9, 0x3d, 0xc2, 0x30, 0x25, 0xd5, 
0xf8, 0xec, 0x06, 0x0b, 0xe2, 0x1a, 0x07, 0xf5, 0x5d, 0x7f, 0x03, 0xf3, 
0x10, 0x09, 0xff, 0x54, 0x0f, 0x45, 0x56, 0x13, 0x11, 0xf3, 0xe1, 0x3d, 
0xea, 0x4a, 0x02, 0xf5, 0x3b, 0x59, 0x35, 0x41, 0x17, 0xfb, 0x2b, 0x32, 
0xd1, 0xc6, 0xcf, 0x0e, 0xe6, 0x16, 0x1d, 0xfc, 0x48, 0x08, 0x21, 0xd0, 
0xb5, 0xdc, 0x0f, 0x04, 0xa1, 0xfb, 0xf6, 0x2a, 0xea, 0xe3, 0x2e, 0xc3, 
0xfa, 0x25, 0xfb, 0x26, 0x24, 0xf0, 0x08, 0xf2, 0x0c, 0x1d, 0x55, 0xf4, 
0x44, 0xfc, 0x5b, 0x58, 0xc8, 0x12, 0xe2, 0x01, 0x03, 0xf7, 0xff, 0x33, 
0x63, 0x22, 0xd5, 0x45, 0xc1, 0xf9, 0xf2, 0xd1, 0x43, 0x11, 0x52, 0x11, 
0x5e, 0x61, 0x16, 0xee, 0xed, 0xf4, 0x33, 0x31, 0x30, 0xe4, 0x3c, 0xe7, 
0xe7, 0xcf, 0xbe, 0xf0, 0xb0, 0x12, 0xab, 0xd9, 0x1f, 0xc5, 0x30, 0x05, 
0xd9, 0x37, 0xe9, 0xdd, 0xf8, 0x03, 0x06, 0x0f, 0x1e, 0xd9, 0x37, 0x14, 
0x47, 0xff, 0xeb, 0x32, 0x05, 0xc8, 0xe0, 0x18, 0x1b, 0xd6, 0xed, 0x09, 
0xf3, 0x17, 0xd2, 0xf1, 0x25, 0xd7, 0x05, 0x5e, 0xe2, 0xfa, 0x2a, 0x0f, 
0xed, 0x03, 0x36, 0x6c, 0x5c, 0x6a, 0xe0, 0xf6, 0xda, 0xf5, 0xf1, 0xc7, 
0x17, 0xf2, 0xc9, 0x10, 0xdb, 0xf4, 0xd7, 0xa4, 0xd8, 0xef, 0xfc, 0xd5, 
0xf1, 0xe6, 0x0c, 0x15, 0x9b, 0x13, 0xe7, 0x1e, 0xf4, 0x31, 0x39, 0x37, 
0x00, 0x18, 0x2d, 0xf8, 0x26, 0x01, 0x24, 0xf3, 0x12, 0xf0, 0xf4, 0x5c, 
0xcd, 0x04, 0x18, 0x0c, 0x00, 0x32, 0xd6, 0xcc, 0x03, 0x41, 0x01, 0x5c, 
0x90, 0xf8, 0xbe, 0xb4, 0xf5, 0x49, 0x66, 0xfe, 0x06, 0x0d, 0xfd, 0x44, 
0x1a, 0x31, 0xcd, 0xf6, 0x15, 0xe2, 0x02, 0xf7, 0xbb, 0x13, 0x0f, 0xb5, 
0x8e, 0xd8, 0xa2, 0xf4, 0x88, 0xc5, 0xd4, 0xa7, 0xd4, 0x00, 0xdb, 0xc2, 
0xcb, 0xff, 0xfe, 0xc4, 0x1a, 0xe7, 0x17, 0x22, 0xf4, 0xed, 0xe9, 0xd5, 
0xbc, 0xde, 0xdd, 0x08, 0x1e, 0xf7, 0xe7, 0x16, 0xa4, 0x1f, 0xc1, 0x9f, 
0xe4, 0xe6, 0x0b, 0x15, 0xbc, 0xd7, 0x22, 0x11, 0xe6, 0xf8, 0xd0, 0x0c, 
0x6c, 0xe8, 0x6b, 0x77, 0x4e, 0x29, 0xb5, 0x0b, 0x44, 0xa6, 0xc3, 0x8e, 
0x01, 0xd6, 0xf6, 0x31, 0xb8, 0x3f, 0x4d, 0xc9, 0x48, 0xf0, 0x5c, 0x20, 
0x56, 0x0b, 0xeb, 0x09, 0x00, 0x30, 0x67, 0x77, 0x5c, 0x59, 0x15, 0xe6, 
0xd5, 0x35, 0x3c, 0xe6, 0xf0, 0xf6, 0x19, 0xd4, 0xb9, 0xd1, 0xf3, 0x37, 
0x25, 0x07, 0xf6, 0x3c, 0x1d, 0xb6, 0xcd, 0xb9, 0x44, 0xc0, 0xca, 0xc5, 
0x44, 0xf4, 0xf6, 0x0b, 0x05, 0x1e, 0x4f, 0x5d, 0x6b, 0x18, 0xf0, 0xf3, 
0x07, 0xa6, 0xc3, 0x89, 0x8d, 0xcf, 0x9d, 0xf9, 0x05, 0x5a, 0xa2, 0x20, 
0x6b, 0x70, 0x35, 0x4a, 0xdc, 0xdd, 0x3a, 0x58, 0x4d, 0xed, 0x1d, 0xbe, 
0x33, 0xea, 0x30, 0x37, 0xf9, 0xe4, 0xa2, 0xdf, 0x35, 0xfa, 0x25, 0xe7, 
0x39, 0x0b, 0x4c, 0x81, 0xc3, 0xc4, 0xac, 0xb3, 0x06, 0xbb, 0x1c, 0x21, 
0x95, 0x06, 0x03, 0x30, 0x9e, 0x22, 0xcf, 0xf2, 0xc7, 0x73, 0x69, 0xdd, 
0xec, 0x07, 0x1a, 0xc0, 0xaf, 0xbb, 0xd2, 0x2e, 0x2d, 0x18, 0x18, 0x3e, 
0xf0, 0xfd, 0x34, 0x17, 0x1c, 0x13, 0x4e, 0xf7, 0xf6, 0x1c, 0xee, 0xd3, 
0xb1, 0xb4, 0xbd, 0x02, 0x9b, 0x3e, 0x1e, 0xe4, 0x28, 0xdb, 0xd3, 0xa0, 
0x1b, 0xfd, 0xfd, 0xd1, 0xaf, 0xd8, 0x34, 0xfc, 0xc0, 0x1e, 0xf9, 0xa8, 
0x1e, 0xc1, 0xfd, 0x1b, 0x2d, 0xcd, 0x9b, 0xbc, 0x96, 0xa6, 0xfe, 0x10, 
0x42, 0xd0, 0x71, 0x4e, 0x0f, 0x4d, 0x66, 0x58, 0x39, 0x18, 0xe0, 0xce, 
0xb5, 0xca, 0x2c, 0xf5, 0xd7, 0xe8, 0x47, 0x58, 0x46, 0x74, 0x5c, 0x07, 
0x1e, 0xbe, 0x26, 0x31, 0xec, 0x40, 0x1e, 0x3a, 0x18, 0xae, 0xdd, 0x2d, 
0xf9, 0xeb, 0xb6, 0xe8, 0xb5, 0xe8, 0xe7, 0xf3, 0x0e, 0xe6, 0xc8, 0x19, 
0x1c, 0x13, 0xcf, 0x0f, 0x02, 0xae, 0x0a, 0xf8, 0x2b, 0x93, 0x38, 0xfe, 
0x8a, 0xb6, 0x08, 0xd5, 0xf5, 0x3d, 0xff, 0xc4, 0xef, 0x5d, 0x30, 0x28, 
0xde, 0x3a, 0xa9, 0x04, 0xae, 0xb2, 0x33, 0x99, 0x59, 0xfe, 0xe6, 0xd6, 
0xe7, 0x3b, 0x3e, 0x17, 0xfd, 0xd8, 0xc0, 0x52, 0x02, 0xe7, 0xc3, 0x37, 
0x16, 0xe6, 0xe5, 0x0c, 0xf7, 0xb0, 0xbb, 0x53, 0xb8, 0xfa, 0xdf, 0xe7, 
0x23, 0xd9, 0x2e, 0x31, 0x2f, 0x37, 0x1c, 0x15, 0xae, 0x24, 0x1a, 0xf6, 
0xa5, 0xdd, 0xb1, 0x08, 0x1e, 0xd9, 0xc8, 0xd8, 0x2c, 0x1b, 0x9c, 0xd5, 
0x36, 0xcc, 0x37, 0xc2, 0xcc, 0x08, 0xed, 0x21, 0xce, 0x1e, 0xfe, 0x2e, 
0xef, 0xd4, 0xf5, 0x04, 0xd3, 0x11, 0xd1, 0x17, 0xee, 0x08, 0xc6, 0xb7, 
0xa8, 0xf1, 0x06, 0xe9, 0xbd, 0x1f, 0xda, 0xc4, 0xab, 0xe0, 0x1e, 0x1b, 
0xaf, 0xd5, 0xe2, 0xf8, 0x1a, 0xad, 0xc3, 0xb8, 0xb0, 0xbf, 0x11, 0x2e, 
0xad, 0x1e, 0xe4, 0x03, 0xeb, 0xe1, 0xbf, 0xdc, 0xa9, 0x15, 0xcd, 0xff, 
0xd6, 0xf4, 0x15, 0xca, 0x4a, 0xc6, 0x07, 0x3c, 0x3f, 0x16, 0xed, 0x55, 
0xe0, 0x44, 0x30, 0xd7, 0x1a, 0xe1, 0x43, 0x20, 0xf0, 0x9c, 0xc5, 0xcd, 
0xf3, 0x08, 0xac, 0xf7, 0xb0, 0xde, 0xbb, 0xd5, 0x1a, 0xf4, 0xfa, 0xfd, 
0x2a, 0xf1, 0xc5, 0xe2, 0xea, 0x0d, 0xf9, 0xa8, 0xda, 0x3e, 0xc2, 0x1c, 
0xc4, 0xd1, 0xbc, 0x19, 0xc9, 0x26, 0x2b, 0xa6, 0x25, 0x0a, 0x3c, 0x21, 
0x03, 0xed, 0x08, 0x31, 0xc7, 0xf8, 0x41, 0xd7, 0x08, 0xe1, 0x02, 0xf0, 
0xf3, 0x44, 0x70, 0x79, 0x0d, 0xda, 0x3b, 0x0b, 0x40, 0x1c, 0x04, 0x05, 
0xca, 0x22, 0xc4, 0x06, 0x03, 0xfb, 0x27, 0x16, 0xbe, 0xe2, 0xcf, 0xc1, 
0xc5, 0xce, 0x33, 0x32, 0x1a, 0x2e, 0xe5, 0x17, 0xf4, 0x4d, 0xea, 0x43, 
0x0c, 0x3b, 0xd9, 0x4c, 0x41, 0xef, 0x56, 0x21, 0x0a, 0x16, 0xf7, 0xa8, 
0xe3, 0x32, 0xdf, 0x10, 0xb7, 0xc1, 0x3e, 0x03, 0xc7, 0x29, 0xed, 0x01, 
0x4b, 0x56, 0x35, 0x38, 0x24, 0x6d, 0x25, 0x23, 0x15, 0x50, 0x46, 0xf1, 
0xe2, 0xd1, 0xee, 0x1b, 0x42, 0x98, 0x05, 0xa1, 0xc8, 0xbb, 0x1e, 0x0c, 
0x05, 0xdc, 0x4b, 0xc8, 0xa3, 0xdf, 0x12, 0xdc, 0xe9, 0xc5, 0xfd, 0x0f, 
0xee, 0x03, 0xc7, 0xb8, 0x26, 0x37, 0xe4, 0x48, 0x27, 0xe3, 0xe1, 0x0d, 
0xdc, 0xf0, 0xd2, 0xa4, 0x1d, 0x0a, 0x3a, 0x24, 0xe0, 0x04, 0x01, 0x15, 
0x3f, 0x06, 0x38, 0x38, 0x12, 0x17, 0x4d, 0x30, 0x0a, 0x1a, 0x4c, 0x7f, 
0xf1, 0x44, 0xe3, 0x44, 0x69, 0x4f, 0x3c, 0x33, 0x35, 0x1b, 0xd7, 0x2f, 
0x2b, 0x07, 0x20, 0xcf, 0x25, 0x31, 0x5e, 0x45, 0x40, 0xf2, 0xc3, 0x13, 
0xf8, 0x60, 0x64, 0x4c, 0x42, 0xfa, 0xff, 0x46, 0x48, 0xe3, 0x05, 0xe8, 
0x4f, 0x00, 0x61, 0x5b, 0x28, 0x26, 0xce, 0xc4, 0x1b, 0x26, 0xe4, 0xc6, 
0xf9, 0x12, 0x16, 0x46, 0xd8, 0x17, 0xbf, 0x0c, 0x49, 0x24, 0x6b, 0x5d, 
0x39, 0x03, 0x15, 0x38, 0xe4, 0xc0, 0xc3, 0xd9, 0xae, 0x21, 0xba, 0xc9, 
0xe9, 0x07, 0xd8, 0xd2, 0x19, 0x0b, 0xce, 0x00, 0xfa, 0x42, 0xe5, 0x19, 
0xc1, 0x05, 0xf5, 0x24, 0x1a, 0xc7, 0x1a, 0x31, 0xff, 0x1c, 0x0c, 0x52, 
0xd7, 0x06, 0x30, 0x31, 0xd4, 0xde, 0x39, 0x18, 0xeb, 0x3f, 0x2f, 0x23, 
0x51, 0xe3, 0x40, 0xdc, 0xf1, 0xf9, 0x05, 0xe0, 0xc1, 0x32, 0xad, 0x11, 
0x29, 0x26, 0x17, 0x62, 0x34, 0x5f, 0xce, 0xe9, 0x03, 0xde, 0xe4, 0x9e, 
0x08, 0xda, 0xd4, 0xa5, 0x9a, 0x81, 0xef, 0xe8, 0xb6, 0x52, 0x0e, 0x2e, 
0x12, 0xdc, 0xbd, 0xc0, 0xc1, 0x08, 0xbc, 0x06, 0x1a, 0x2c, 0xf0, 0xf1, 
0x25, 0xf2, 0x20, 0xe1, 0xb1, 0x1b, 0xc8, 0xdd, 0xe0, 0x3a, 0xe7, 0xd8, 
0xda, 0x29, 0x3d, 0xd4, 0x2a, 0x22, 0xf8, 0xdf, 0xc4, 0x39, 0x4a, 0x11, 
0x48, 0xc7, 0x2a, 0xfb, 0x11, 0x57, 0x64, 0x28, 0x31, 0xf4, 0xff, 0x32, 
0xfc, 0xc7, 0xd4, 0xbc, 0x0d, 0x23, 0x15, 0xfe, 0xb7, 0xfc, 0x1f, 0x03, 
0x10, 0xeb, 0xb6, 0xc2, 0x29, 0x62, 0x03, 0xe0, 0x23, 0x27, 0xb2, 0xec, 
0xb8, 0xb0, 0x28, 0xc5, 0x08, 0x08, 0x37, 0x3b, 0xdb, 0x20, 0xdc, 0xe0, 
0xe0, 0xf3, 0xe8, 0x51, 0x35, 0xf4, 0x26, 0xcb, 0x57, 0xf7, 0xde, 0xec, 
0x05, 0x32, 0x07, 0x41, 0x0c, 0x3a, 0x3b, 0x29, 0x49, 0x1e, 0x1b, 0x1f, 
0xf8, 0xe5, 0x1c, 0x02, 0x16, 0xe0, 0xb1, 0xda, 0x0d, 0x21, 0xef, 0xb0, 
0xe6, 0xa9, 0xf9, 0x11, 0xc6, 0x0e, 0xba, 0xae, 0x18, 0x42, 0xf0, 0xe0, 
0xed, 0xcb, 0x18, 0x27, 0xf6, 0xcf, 0xdf, 0xcc, 0x3d, 0x33, 0xdc, 0x25, 
0xd1, 0xdd, 0x47, 0x42, 0xf2, 0x33, 0x56, 0xc6, 0xc6, 0xec, 0x19, 0xcc, 
0x43, 0x33, 0xe7, 0x12, 0xc0, 0xdc, 0x40, 0xc7, 0x2e, 0xfb, 0x19, 0xbc, 
0xc2, 0x06, 0xf5, 0x14, 0xf2, 0xff, 0x2d, 0x32, 0xec, 0xca, 0xd8, 0x1e, 
0xf4, 0xe7, 0xf6, 0xbc, 0x22, 0x9f, 0xd0, 0x36, 0x36, 0xed, 0xe8, 0xb0, 
0xfc, 0x6c, 0x49, 0xfc, 0x29, 0xb6, 0xec, 0xf2, 0xf6, 0xc7, 0xe2, 0xfd, 
0xd7, 0xe8, 0x01, 0x1c, 0xe1, 0xae, 0x11, 0xfc, 0xe2, 0x03, 0xeb, 0xf3, 
0xbe, 0xd5, 0xe6, 0xa2, 0x0d, 0x36, 0x55, 0x35, 0x4b, 0x37, 0x14, 0x33, 
0xdd, 0xdd, 0xab, 0xd2, 0xcb, 0x90, 0xe6, 0x94, 0x23, 0x91, 0x0b, 0xcc, 
0xfc, 0xb4, 0xbe, 0xa8, 0xf2, 0x90, 0xca, 0xb9, 0x2c, 0xd7, 0x46, 0x27, 
0xfd, 0xf5, 0x23, 0x18, 0xf7, 0x2f, 0x50, 0xed, 0x06, 0x14, 0xd2, 0x3d, 
0x4a, 0x0d, 0x0e, 0xca, 0x18, 0x0e, 0x25, 0xeb, 0xfe, 0x53, 0x2d, 0xef, 
0x34, 0xc4, 0x26, 0x1e, 0xcd, 0xbc, 0xee, 0xaf, 0x3d, 0x60, 0x60, 0x7f, 
0x3e, 0x0f, 0x38, 0x10, 0x0a, 0x14, 0xcd, 0xf8, 0xb9, 0xb6, 0xd0, 0xad, 
0xa7, 0xf7, 0xd0, 0xf8, 0xb4, 0x93, 0xde, 0xfe, 0xab, 0xde, 0xe3, 0x03, 
0xd5, 0x0a, 0x57, 0x40, 0xb3, 0xae, 0xd1, 0x35, 0xe1, 0xef, 0x3e, 0x40, 
0x7f, 0xf4, 0x11, 0x4d, 0xec, 0xec, 0xf4, 0x32, 0x2b, 0xb2, 0xe6, 0x4c, 
0xf5, 0xeb, 0x30, 0xe1, 0x06, 0x16, 0x1b, 0xb3, 0x01, 0xc5, 0xd2, 0xd6, 
0x1d, 0x0d, 0x7a, 0x1d, 0x17, 0x5d, 0xcd, 0xce, 0xd0, 0xd4, 0xf4, 0x1c, 
0xc5, 0xce, 0xc0, 0xc5, 0xf2, 0x05, 0x0e, 0xd2, 0xba, 0x9e, 0xbf, 0xef, 
0x33, 0x28, 0x25, 0x24, 0x1e, 0xf4, 0x3e, 0x41, 0x3f, 0xd7, 0xc5, 0x08, 
0xee, 0xf4, 0xe7, 0x17, 0x5e, 0x0b, 0x35, 0xe0, 0x44, 0x6b, 0x04, 0x0f, 
0xf3, 0xdd, 0xf1, 0x24, 0xfa, 0x51, 0x09, 0x06, 0x4a, 0x1b, 0xcf, 0x07, 
0xd5, 0x07, 0xcf, 0xae, 0xd8, 0x24, 0x3c, 0x1e, 0x32, 0x15, 0xc0, 0xe2, 
0x3a, 0xcd, 0x32, 0x20, 0xc8, 0xce, 0xe1, 0xf6, 0xfb, 0xf8, 0xf0, 0xd9, 
0xeb, 0xfc, 0xe0, 0xf8, 0xee, 0x1b, 0xaa, 0x27, 0x29, 0xeb, 0x36, 0x10, 
0x3b, 0x5e, 0x11, 0xf1, 0x05, 0xf3, 0x53, 0xef, 0x43, 0xc5, 0xff, 0xcf, 
0x0b, 0x0a, 0xfd, 0x19, 0x0d, 0x40, 0x33, 0xd2, 0x2e, 0xef, 0x29, 0xb4, 
0xcf, 0xf3, 0xd1, 0x07, 0x23, 0x18, 0x35, 0xf1, 0xed, 0xef, 0xf4, 0xe5, 
0xfd, 0xdf, 0xf6, 0xe1, 0x44, 0xff, 0x3e, 0x3d, 0xc6, 0x31, 0x15, 0xb9, 
0x10, 0xea, 0xe8, 0xc7, 0xb2, 0xcc, 0xf6, 0xe7, 0x2c, 0x08, 0xd6, 0x4f, 
0xfe, 0x20, 0xf7, 0x2e, 0xf0, 0x18, 0x25, 0x07, 0xdd, 0x31, 0xd5, 0xf8, 
0x0b, 0xc7, 0xe3, 0x0e, 0x33, 0xf5, 0x2f, 0x37, 0x0f, 0xdd, 0x35, 0x13, 
0x11, 0x30, 0x19, 0xa1, 0x35, 0x1d, 0x19, 0x33, 0xd2, 0xdc, 0x0c, 0xf0, 
0x4e, 0xe4, 0xff, 0xff, 0x04, 0x00, 0x00, 0x00, 0x40, 0x00, 0x00, 0x00, 
0xef, 0x02, 0x00, 0x00, 0xa4, 0x05, 0x00, 0x00, 0xe7, 0x0a, 0x00, 0x00, 
0x24, 0x09, 0x00, 0x00, 0xa4, 0x01, 0x00, 0x00, 0x60, 0x11, 0x00, 0x00, 
0x2f, 0xf7, 0xff, 0xff, 0xf2, 0xff, 0xff, 0xff, 0x22, 0x07, 0x00, 0x00, 
0xc2, 0x16, 0x00, 0x00, 0x1e, 0x10, 0x00, 0x00, 0x1c, 0xe3, 0xff, 0xff, 
0xe9, 0xfc, 0xff, 0xff, 0xb5, 0xfb, 0xff, 0xff, 0x91, 0xf7, 0xff, 0xff, 
0xa3, 0xf8, 0xff, 0xff, 0x9a, 0xe4, 0xff, 0xff, 0x04, 0x00, 0x00, 0x00, 
0x00, 0x0a, 0x00, 0x00, 0xca, 0x33, 0xf0, 0x19, 0xeb, 0x06, 0x15, 0xff, 
0x3f, 0xac, 0xca, 0x38, 0x00, 0xfe, 0x13, 0x07, 0xed, 0xed, 0xdb, 0x22, 
0xfe, 0x1c, 0x42, 0xf8, 0x33, 0xcb, 0x38, 0x25, 0x2e, 0x2f, 0x38, 0x2e, 
0x17, 0x10, 0x32, 0xef, 0xde, 0x22, 0xe5, 0xbe, 0x48, 0x24, 0xe3, 0x1c, 
0x2b, 0xfb, 0x28, 0xfa, 0x23, 0xeb, 0xf4, 0xf9, 0x05, 0xe0, 0xe9, 0xb9, 
0x03, 0xee, 0x2e, 0xed, 0x01, 0x3f, 0x24, 0xf6, 0x1f, 0xc2, 0xa2, 0x7f, 
0xda, 0xbf, 0xd3, 0xfd, 0xc4, 0xb1, 0x0f, 0x0b, 0x38, 0x3c, 0xd8, 0xca, 
0xe8, 0x72, 0xf1, 0x23, 0xc0, 0x04, 0x37, 0x35, 0x02, 0x0e, 0x4c, 0x3d, 
0x21, 0xaa, 0xc7, 0x38, 0x91, 0x52, 0xe5, 0xf0, 0x1a, 0x95, 0xdb, 0xe9, 
0x44, 0x23, 0x14, 0x08, 0x7d, 0x9c, 0xee, 0x58, 0x4f, 0x48, 0xab, 0x12, 
0x25, 0x1a, 0xf9, 0x01, 0x25, 0x66, 0x03, 0xcf, 0xd0, 0xb2, 0xe2, 0x3e, 
0x4d, 0xf8, 0x28, 0xf2, 0xca, 0x64, 0xd6, 0x09, 0x00, 0x4f, 0x0e, 0xd0, 
0xbd, 0xce, 0x36, 0xd5, 0xc8, 0xef, 0xe3, 0x4b, 0xb6, 0x7f, 0xdd, 0x38, 
0x1f, 0x02, 0x28, 0xe3, 0xc6, 0x54, 0x34, 0xec, 0xe7, 0x3b, 0xfd, 0x31, 
0xfc, 0xa7, 0xe2, 0x07, 0x47, 0x1c, 0x7f, 0xfb, 0xc4, 0xdf, 0xde, 0xea, 
0x22, 0xee, 0xda, 0xf1, 0xea, 0x40, 0x00, 0x24, 0x2a, 0x45, 0x3b, 0x16, 
0x92, 0xe3, 0xed, 0xdc, 0x32, 0xd2, 0x27, 0x1c, 0x0c, 0x5b, 0xa0, 0x34, 
0xca, 0xaf, 0xda, 0xae, 0xab, 0xed, 0x2b, 0x06, 0x30, 0xbe, 0xf5, 0x4c, 
0x27, 0x24, 0x46, 0x02, 0xba, 0xf8, 0x55, 0xd4, 0xc8, 0x59, 0xd6, 0xc2, 
0xd4, 0xe6, 0x2f, 0xff, 0x16, 0xf0, 0x15, 0xd9, 0x3c, 0x29, 0x4a, 0x0a, 
0x0f, 0x17, 0xed, 0xc6, 0xc3, 0xbf, 0x8c, 0x21, 0xcc, 0x96, 0xca, 0x31, 
0xdd, 0x93, 0xe3, 0x0b, 0xc0, 0x06, 0xd2, 0x4b, 0xb6, 0xe9, 0xb8, 0xf8, 
0xf1, 0xc8, 0xcb, 0x44, 0x11, 0x81, 0xd9, 0x20, 0x07, 0xea, 0xd8, 0xfa, 
0xef, 0xde, 0x12, 0x14, 0x24, 0x19, 0x22, 0x08, 0xd7, 0xed, 0x18, 0x27, 
0xe9, 0x0b, 0xdc, 0x07, 0xbd, 0xe2, 0xfe, 0x08, 0xd1, 0x4b, 0x07, 0xa8, 
0xfc, 0xd2, 0xfd, 0x09, 0x0f, 0xf5, 0xf0, 0xe2, 0xbd, 0xf0, 0x1e, 0xcb, 
0xf4, 0x46, 0x44, 0x99, 0x09, 0xb1, 0x02, 0x2a, 0x40, 0x27, 0x2f, 0x00, 
0x13, 0x60, 0x1f, 0x3a, 0xd9, 0x72, 0xf7, 0xc4, 0xad, 0x5a, 0x7f, 0x3c, 
0xe6, 0x55, 0x2a, 0x99, 0xcd, 0x45, 0x3c, 0x0f, 0xde, 0x06, 0x3a, 0xfc, 
0x1a, 0x25, 0xf0, 0xc6, 0xbc, 0xd8, 0x03, 0xbe, 0xec, 0x22, 0xc3, 0x97, 
0x29, 0x5f, 0x4f, 0x1d, 0xc3, 0xdf, 0x00, 0xed, 0xdc, 0x44, 0x35, 0x3d, 
0x00, 0xc8, 0xe9, 0x8c, 0x08, 0xee, 0x18, 0x5c, 0x0b, 0xae, 0xbb, 0x21, 
0x40, 0x22, 0xbe, 0xe1, 0x5b, 0x03, 0xad, 0xd4, 0x03, 0x9a, 0xbc, 0x0a, 
0xd2, 0xb1, 0xd9, 0xcc, 0xa4, 0x3d, 0xd8, 0x6f, 0xf8, 0xb8, 0x4c, 0x26, 
0xd7, 0x9c, 0x32, 0x95, 0xff, 0x98, 0x4c, 0xbd, 0xb4, 0xac, 0x62, 0xfc, 
0x31, 0xec, 0x11, 0x90, 0xe1, 0x27, 0x0e, 0x98, 0x2c, 0x1a, 0x40, 0x2b, 
0x0c, 0x32, 0x1d, 0xaa, 0x5b, 0xce, 0xfd, 0x12, 0x37, 0xed, 0x23, 0xc9, 
0xd4, 0xe4, 0x2b, 0xe2, 0x0a, 0xf3, 0x29, 0xf7, 0xda, 0x0c, 0x3d, 0xee, 
0x18, 0x28, 0x12, 0xf8, 0x7f, 0x9f, 0x2a, 0x31, 0x22, 0x28, 0xeb, 0xee, 
0xfc, 0xd4, 0x32, 0x42, 0x4f, 0x9b, 0xc2, 0x07, 0xd9, 0x24, 0xdf, 0x26, 
0x0d, 0xad, 0xe3, 0x21, 0xdf, 0x4f, 0xb0, 0x9b, 0xa4, 0xd7, 0x34, 0xed, 
0xff, 0x21, 0x42, 0x3a, 0x2f, 0xd8, 0xbd, 0xde, 0x2e, 0x08, 0xfa, 0xfe, 
0xb5, 0xf8, 0x34, 0xf8, 0xeb, 0x26, 0xc0, 0x16, 0xf6, 0xcc, 0x06, 0x11, 
0xc5, 0xc6, 0xf9, 0xd1, 0xe8, 0xfb, 0xd1, 0x2a, 0x30, 0xd8, 0x64, 0xe7, 
0xff, 0x9b, 0x28, 0xf8, 0xc5, 0xfd, 0x28, 0x48, 0x94, 0xd6, 0x0e, 0xee, 
0xb8, 0x74, 0xb8, 0xc9, 0x2f, 0x30, 0x04, 0xe8, 0x91, 0x13, 0xb3, 0x12, 
0x11, 0xfe, 0xf4, 0xf7, 0x96, 0x1a, 0x7f, 0xcb, 0x4c, 0xac, 0xff, 0x88, 
0xc1, 0x1c, 0xf5, 0x59, 0xbf, 0x18, 0xaf, 0xfc, 0xf2, 0xac, 0xab, 0x62, 
0xea, 0xfa, 0x0d, 0x7f, 0x8a, 0x1a, 0xe9, 0xd8, 0xdc, 0xff, 0x16, 0x96, 
0x08, 0x97, 0xf5, 0x2a, 0x37, 0xc5, 0x19, 0x51, 0x0a, 0x2f, 0x58, 0xd2, 
0x34, 0x3b, 0x2f, 0xfb, 0xf8, 0x99, 0xd3, 0xd8, 0x52, 0x29, 0xbb, 0x40, 
0xf3, 0x08, 0xbc, 0xc9, 0xb3, 0x58, 0x43, 0xa9, 0x35, 0xda, 0xff, 0x12, 
0xdf, 0xc2, 0xc5, 0xbe, 0xd4, 0x22, 0xb7, 0xed, 0x1d, 0x14, 0x18, 0x9d, 
0x4c, 0xf8, 0x3e, 0xa0, 0xcb, 0xc9, 0x02, 0xae, 0x0f, 0x4b, 0xfe, 0xfb, 
0xdd, 0xc7, 0x69, 0xa5, 0x57, 0x1c, 0xd2, 0x5a, 0x0c, 0xcb, 0x6d, 0x0d, 
0xd6, 0x29, 0xcd, 0x24, 0xd8, 0x9e, 0x59, 0x1e, 0x52, 0x0b, 0xcd, 0xde, 
0xe2, 0x08, 0x2a, 0xe2, 0xda, 0xc4, 0xbb, 0x10, 0x11, 0xb9, 0xe2, 0x34, 
0xd0, 0x13, 0xa9, 0x4b, 0x28, 0xfa, 0x2e, 0x77, 0x0e, 0x4e, 0xbe, 0x10, 
0xcb, 0x1f, 0x27, 0x56, 0x3f, 0xef, 0x8d, 0xce, 0xa5, 0x4b, 0xe4, 0x51, 
0xc0, 0x3b, 0x0f, 0x50, 0x81, 0xb2, 0xbb, 0x32, 0x4b, 0x07, 0x2a, 0xee, 
0x42, 0xb0, 0xab, 0x47, 0x5e, 0x0d, 0xdd, 0x32, 0xe4, 0xea, 0x4f, 0xcd, 
0xd5, 0xe6, 0x7d, 0x28, 0x00, 0xd6, 0x0f, 0x89, 0xff, 0xe6, 0x27, 0x7a, 
0x1f, 0xf5, 0x00, 0x00, 0xdd, 0x56, 0xd7, 0xc4, 0x37, 0x5b, 0x0a, 0x81, 
0xef, 0xd6, 0x18, 0xfd, 0xc4, 0xf8, 0x44, 0x07, 0x04, 0x18, 0x06, 0xb9, 
0xc8, 0xda, 0x46, 0xae, 0x17, 0x4c, 0x9b, 0x1e, 0x41, 0x47, 0x47, 0xfa, 
0x28, 0xde, 0x2f, 0x29, 0x2a, 0x4b, 0x9b, 0xd4, 0xa9, 0x4f, 0xb8, 0x50, 
0xf3, 0x1c, 0x0e, 0xdb, 0x4f, 0x29, 0x3e, 0xdb, 0x49, 0xd4, 0x24, 0x04, 
0x46, 0x3b, 0xba, 0x0a, 0x04, 0x50, 0xbf, 0xbd, 0xab, 0xfb, 0x7f, 0x6a, 
0xc3, 0xfb, 0xfb, 0x5a, 0xac, 0x4f, 0x26, 0xd8, 0x12, 0x10, 0xd7, 0xda, 
0xbe, 0xbe, 0x08, 0xe6, 0xa5, 0xe4, 0x3f, 0xce, 0xd3, 0x33, 0x3e, 0xf2, 
0xb3, 0x9e, 0xc4, 0xfd, 0xfc, 0x75, 0x08, 0x1b, 0xe9, 0xec, 0x3b, 0x08, 
0xee, 0xf9, 0xcc, 0x1e, 0xc9, 0x00, 0xc7, 0x1c, 0x31, 0x16, 0x57, 0xa4, 
0x28, 0xaf, 0xbc, 0xb1, 0x30, 0x2f, 0xc9, 0x61, 0xb4, 0x39, 0xeb, 0xaa, 
0xe2, 0xe6, 0x4a, 0xb4, 0x31, 0xc0, 0x53, 0xde, 0xbc, 0xb9, 0x35, 0xe6, 
0x01, 0xcf, 0x33, 0xb8, 0xba, 0x1f, 0x0c, 0xbd, 0x96, 0x5c, 0x1b, 0x01, 
0x6a, 0xba, 0x6b, 0xb7, 0x61, 0xdb, 0x3c, 0x0f, 0x1d, 0x5a, 0x75, 0xb4, 
0xb2, 0xd7, 0xbe, 0xbe, 0x20, 0xb3, 0x32, 0x9d, 0xd0, 0x35, 0x28, 0x28, 
0x2b, 0x2c, 0x21, 0x09, 0x11, 0xb4, 0x5a, 0xb7, 0xca, 0x81, 0x26, 0xed, 
0x51, 0x08, 0xcb, 0xe9, 0xbb, 0xfe, 0xe8, 0x07, 0xde, 0xd3, 0x2d, 0x1b, 
0x1b, 0xd8, 0x12, 0xf9, 0x11, 0x46, 0xf3, 0x1d, 0x38, 0x29, 0xb2, 0xa8, 
0x11, 0x02, 0x20, 0x27, 0x09, 0xfe, 0x0b, 0xf0, 0xd6, 0x25, 0xe6, 0xc5, 
0xd0, 0x0b, 0x66, 0xf9, 0xdf, 0x37, 0x25, 0xe5, 0x1c, 0x15, 0x0f, 0x0c, 
0xe8, 0xdd, 0x24, 0xb5, 0xfa, 0x0b, 0x24, 0x0a, 0x13, 0xd3, 0xe6, 0xb3, 
0xf1, 0x00, 0xc9, 0x03, 0xcc, 0x1e, 0x1e, 0xbb, 0xb4, 0xc5, 0x17, 0x1c, 
0xea, 0x1a, 0x1b, 0xf2, 0x2e, 0x0f, 0xbe, 0x36, 0x0c, 0x0e, 0x2b, 0xf6, 
0xd3, 0x81, 0xd9, 0x14, 0xff, 0x3d, 0x37, 0xf3, 0xc3, 0x0f, 0xb6, 0xdf, 
0xee, 0xf1, 0x27, 0xd7, 0xc6, 0xdf, 0xec, 0x4d, 0x26, 0xda, 0x14, 0xce, 
0xdc, 0xe4, 0xb2, 0x04, 0xab, 0xa5, 0x7f, 0x9d, 0xbf, 0x4b, 0x36, 0x6d, 
0x9b, 0xb3, 0x39, 0xfd, 0xb0, 0x07, 0xb9, 0x06, 0x95, 0xa5, 0x0b, 0xbb, 
0xf3, 0x46, 0x23, 0x63, 0xaa, 0x20, 0xda, 0xf5, 0xfe, 0x12, 0x1e, 0x21, 
0x17, 0xda, 0x64, 0x43, 0x1d, 0xf6, 0x11, 0xde, 0xcc, 0xc0, 0x38, 0x28, 
0xfe, 0xce, 0x40, 0xd2, 0xd5, 0x1c, 0xbc, 0x48, 0xcc, 0xf6, 0x9c, 0xfe, 
0x0b, 0xbf, 0xf9, 0x5d, 0x45, 0xff, 0xba, 0x0f, 0xe3, 0xce, 0x1a, 0x22, 
0xda, 0x9d, 0xde, 0xe7, 0x90, 0x12, 0x1c, 0xd7, 0xf1, 0xbc, 0xc3, 0xf6, 
0xfc, 0xc9, 0xbe, 0x3e, 0xe5, 0xea, 0x79, 0xe0, 0xec, 0xed, 0xf6, 0xdf, 
0x33, 0xee, 0xde, 0x17, 0xae, 0x0c, 0x15, 0x68, 0x03, 0x09, 0x6d, 0xf8, 
0x0d, 0xc6, 0xdf, 0x42, 0x9d, 0x23, 0x2d, 0x43, 0x27, 0x49, 0xa9, 0x69, 
0x25, 0xd8, 0xdd, 0xd3, 0xcf, 0x34, 0x15, 0x3f, 0x74, 0x33, 0xf7, 0xbf, 
0xc2, 0x49, 0xf9, 0x19, 0xdc, 0xcd, 0x98, 0x6f, 0xab, 0x48, 0xde, 0x2e, 
0x45, 0xc7, 0x96, 0xc2, 0x14, 0x42, 0x7f, 0xca, 0xba, 0x1b, 0xb2, 0xce, 
0x4d, 0xdf, 0x78, 0x2f, 0x81, 0x2b, 0xaf, 0x19, 0xed, 0xb2, 0x2a, 0xf9, 
0x39, 0xa7, 0x26, 0x3f, 0xf7, 0xb7, 0xdf, 0xab, 0x87, 0xb1, 0xe5, 0xf9, 
0xc0, 0xce, 0x32, 0x22, 0x38, 0xce, 0x48, 0x08, 0xdc, 0xab, 0xe5, 0xc9, 
0xcb, 0x00, 0x22, 0x45, 0xe9, 0xba, 0x42, 0xd9, 0xf6, 0xd5, 0x42, 0x2b, 
0x0e, 0xad, 0x07, 0xb6, 0x0f, 0xe9, 0x04, 0x0c, 0xe6, 0xf0, 0x40, 0xfa, 
0xd0, 0xcd, 0xf2, 0x33, 0xc5, 0xee, 0x57, 0x14, 0x05, 0xae, 0xc2, 0x13, 
0xdc, 0xdf, 0x28, 0xda, 0x3a, 0x27, 0xec, 0x24, 0x14, 0xc2, 0x3d, 0xdd, 
0x24, 0xb4, 0xea, 0x00, 0xd6, 0xb0, 0xa4, 0x42, 0x02, 0x8c, 0x90, 0xfd, 
0x9f, 0x27, 0x25, 0x12, 0x1e, 0x8d, 0xce, 0x48, 0xd8, 0x9b, 0xb8, 0x4c, 
0x91, 0x8c, 0xe6, 0x31, 0xb0, 0x16, 0xfe, 0x63, 0xf2, 0xb5, 0x0e, 0x0f, 
0x0d, 0x93, 0xde, 0x25, 0xe7, 0xaf, 0x81, 0x36, 0xc9, 0x22, 0xf9, 0x60, 
0x09, 0xcc, 0x3b, 0x59, 0x17, 0xdf, 0xe0, 0x03, 0x11, 0xf3, 0xde, 0xe2, 
0x0d, 0xd0, 0xd5, 0x27, 0xb6, 0x27, 0x41, 0xbf, 0x46, 0x1a, 0xeb, 0xa3, 
0x08, 0xac, 0x34, 0x49, 0x33, 0xdc, 0x10, 0xda, 0x51, 0x4f, 0x4d, 0x10, 
0x1d, 0xf4, 0xa7, 0xd5, 0x1f, 0x20, 0xd5, 0xd4, 0x2f, 0x55, 0xf2, 0xda, 
0x32, 0x5c, 0xe5, 0xde, 0x05, 0x3b, 0xc6, 0x1b, 0xb1, 0x5a, 0x48, 0xcc, 
0x68, 0x3e, 0x23, 0x14, 0x1e, 0xea, 0x98, 0x9f, 0xd3, 0x27, 0xfc, 0x05, 
0xee, 0x4f, 0xc7, 0x2d, 0xe7, 0xbf, 0x07, 0x07, 0xe6, 0x1b, 0xa1, 0xef, 
0xb3, 0xc1, 0xb5, 0x42, 0xdd, 0x33, 0x46, 0xd0, 0x16, 0x4c, 0x2b, 0x4d, 
0x44, 0x63, 0x81, 0xa1, 0xf7, 0xcd, 0x0b, 0x17, 0xd7, 0x96, 0xdb, 0x35, 
0xc0, 0x57, 0xc0, 0xec, 0x27, 0x22, 0xe2, 0xea, 0x1e, 0xdb, 0x65, 0x12, 
0xe9, 0xae, 0xe3, 0x2d, 0xb2, 0xec, 0x34, 0xa1, 0xf2, 0xe4, 0x0c, 0xbe, 
0xee, 0xa3, 0xc2, 0x83, 0xe2, 0xea, 0x08, 0x7b, 0xe3, 0x06, 0xbe, 0x1a, 
0xe1, 0x83, 0xd3, 0x0c, 0xc2, 0xb3, 0x26, 0xd5, 0x2e, 0x12, 0xbf, 0x0e, 
0x83, 0x05, 0x1b, 0x81, 0xee, 0xc4, 0xc0, 0x09, 0xe2, 0xad, 0xf9, 0xba, 
0x55, 0x98, 0xa3, 0xff, 0x99, 0xfd, 0xf0, 0xdd, 0xe0, 0x28, 0x49, 0x01, 
0x4e, 0x14, 0xf2, 0xb0, 0x16, 0x21, 0x02, 0x42, 0xc9, 0xb9, 0x75, 0xf9, 
0x3c, 0x32, 0x0b, 0xf2, 0x48, 0x06, 0xe1, 0x22, 0xf4, 0x30, 0xc1, 0xb8, 
0xfb, 0x01, 0x58, 0xd7, 0xdf, 0xa7, 0xe5, 0x3f, 0xd9, 0x07, 0xe2, 0x36, 
0x00, 0xc4, 0xda, 0x24, 0xd6, 0xf7, 0xf7, 0xe1, 0xd8, 0x3f, 0xb9, 0x3e, 
0xf0, 0x23, 0xcf, 0x5a, 0xe3, 0xf9, 0x84, 0x16, 0xba, 0x27, 0x34, 0xe5, 
0xb6, 0xe1, 0xcf, 0xc5, 0xe5, 0xce, 0x53, 0xd8, 0x24, 0xe2, 0xb6, 0xe2, 
0x24, 0x2b, 0x18, 0x65, 0x16, 0x15, 0xa6, 0xd8, 0xed, 0xe4, 0x58, 0x69, 
0xd5, 0x18, 0xd5, 0x01, 0xf6, 0xc8, 0x08, 0x7f, 0xbf, 0xe0, 0xb0, 0xde, 
0xe1, 0xa7, 0xd8, 0xc8, 0x37, 0xb1, 0xed, 0x40, 0x12, 0xe5, 0xba, 0x24, 
0xa3, 0x1e, 0x15, 0x10, 0xc7, 0xdd, 0x22, 0x1f, 0xc3, 0xe2, 0x09, 0x52, 
0xf7, 0xdc, 0xfc, 0xdd, 0xb3, 0x1a, 0x0e, 0x0d, 0x2f, 0x81, 0xd2, 0xc8, 
0x11, 0xff, 0x05, 0x40, 0xea, 0x92, 0x11, 0x43, 0x43, 0x04, 0xe9, 0x37, 
0x00, 0xe2, 0x3a, 0xeb, 0x06, 0xfb, 0x14, 0xc6, 0xeb, 0x2d, 0x19, 0x39, 
0x2c, 0xa3, 0x21, 0x22, 0xd4, 0xfe, 0xee, 0x1b, 0x03, 0xef, 0xac, 0xcc, 
0xc7, 0x35, 0x31, 0xd7, 0x6e, 0x04, 0xba, 0x94, 0xa7, 0xbe, 0x47, 0x22, 
0x9f, 0xa6, 0x8b, 0xb8, 0xe1, 0x2d, 0x71, 0x2b, 0xec, 0xf6, 0x06, 0x11, 
0x95, 0x2b, 0x2c, 0x13, 0xf7, 0xbc, 0xe0, 0x1c, 0xd6, 0xd3, 0x4c, 0x1c, 
0x11, 0x2a, 0x18, 0x08, 0x0a, 0xd8, 0xb3, 0xe1, 0x00, 0x05, 0x0e, 0xc1, 
0xd8, 0x18, 0x0f, 0x03, 0x13, 0x41, 0x30, 0x0f, 0xd9, 0x1f, 0x2c, 0xf3, 
0x5c, 0x7f, 0x37, 0xe0, 0xfd, 0xd4, 0xae, 0xe6, 0xcd, 0xd6, 0xd4, 0xa8, 
0x2b, 0xf9, 0xd8, 0xc9, 0x56, 0x46, 0xb3, 0x27, 0x9a, 0xe5, 0xe2, 0xde, 
0xe8, 0xaf, 0xcc, 0xfa, 0xfc, 0xb2, 0x43, 0x12, 0x07, 0xfa, 0x08, 0x34, 
0xee, 0xf5, 0xdf, 0x34, 0x0a, 0xbd, 0xb8, 0x24, 0xe7, 0xf0, 0xe1, 0xe8, 
0xf5, 0xfc, 0xe8, 0x44, 0xc0, 0xd3, 0x41, 0xef, 0x00, 0xb1, 0xf8, 0x5c, 
0x29, 0xd1, 0xdc, 0xf4, 0x1b, 0xcb, 0xc4, 0xff, 0x0e, 0xa7, 0x0c, 0xec, 
0x03, 0xd2, 0xeb, 0x00, 0xfa, 0xd5, 0xe5, 0x1a, 0x42, 0xec, 0x22, 0xfa, 
0xdc, 0xa8, 0x29, 0x1f, 0x17, 0x1a, 0x16, 0x30, 0x07, 0x24, 0xc4, 0x0b, 
0x40, 0xf1, 0xf0, 0xc5, 0xec, 0x81, 0x31, 0x1a, 0x09, 0xeb, 0x04, 0x1c, 
0xf8, 0xc0, 0xea, 0x03, 0x1a, 0xef, 0x32, 0xc7, 0xe5, 0xf5, 0xf2, 0xe9, 
0xde, 0xfc, 0xed, 0x4a, 0xf1, 0xbc, 0xe2, 0x04, 0xc4, 0x20, 0x0c, 0x0c, 
0xe3, 0xeb, 0xe6, 0xfe, 0xb2, 0xf0, 0x1a, 0x7f, 0xf1, 0x1f, 0xe3, 0x25, 
0xc2, 0x27, 0x26, 0x24, 0xd4, 0xe1, 0xeb, 0x0c, 0xe1, 0x08, 0x10, 0x23, 
0xd1, 0x15, 0x0e, 0x1b, 0xc7, 0x21, 0x0b, 0x11, 0x08, 0x05, 0xfa, 0x2a, 
0xf4, 0x1c, 0xf7, 0x16, 0xdd, 0xfe, 0x33, 0xe4, 0x19, 0x03, 0x22, 0x19, 
0x0b, 0xef, 0xe5, 0x14, 0x24, 0xc0, 0x35, 0x68, 0xd4, 0x1e, 0x19, 0x1f, 
0x0b, 0xfe, 0x12, 0x01, 0x4d, 0x42, 0x2b, 0x22, 0xee, 0x0e, 0xd5, 0x5d, 
0xef, 0xf1, 0x2f, 0x28, 0x08, 0xf3, 0xd4, 0x05, 0x43, 0x21, 0xe0, 0xf9, 
0xb4, 0xcc, 0xf4, 0x7f, 0xda, 0xca, 0xeb, 0xf7, 0xda, 0xe3, 0x92, 0xf2, 
0xf3, 0xdd, 0xf8, 0xca, 0xe0, 0x37, 0x1a, 0x12, 0xbd, 0xf4, 0x08, 0xba, 
0x11, 0x5e, 0xe5, 0xda, 0xe5, 0xf1, 0xde, 0x3b, 0x1e, 0x3a, 0x0e, 0x26, 
0xd8, 0xe4, 0xbe, 0x02, 0x16, 0x06, 0xa6, 0x05, 0x4a, 0xa4, 0xe1, 0x23, 
0x0b, 0xe9, 0x4e, 0x39, 0x36, 0x3c, 0xd9, 0x10, 0x3e, 0x1a, 0x24, 0xe0, 
0x31, 0x11, 0xda, 0x81, 0xd0, 0xd2, 0x01, 0x03, 0x09, 0x1f, 0xfd, 0x27, 
0xe1, 0x3c, 0xee, 0xf7, 0x38, 0x04, 0xf2, 0xaa, 0xe9, 0x18, 0x23, 0x3a, 
0xf0, 0x28, 0x16, 0x3a, 0xe7, 0x26, 0x71, 0xbe, 0xb0, 0xce, 0xff, 0xe8, 
0xb4, 0xfa, 0xca, 0xe6, 0xd4, 0x03, 0x1e, 0x4f, 0xb2, 0xff, 0xdb, 0xba, 
0x92, 0x0a, 0xdb, 0x3c, 0xcd, 0xc7, 0x15, 0x52, 0xf7, 0xfd, 0xfe, 0x46, 
0xac, 0xdc, 0x2c, 0x36, 0xf1, 0xee, 0xfb, 0x24, 0xfa, 0xc7, 0xc5, 0xd5, 
0x3f, 0x0e, 0x53, 0xa3, 0x11, 0x9b, 0x1a, 0x26, 0xd5, 0x25, 0x14, 0xb6, 
0xd9, 0xcd, 0xbd, 0x17, 0x3a, 0xfb, 0x13, 0x91, 0xbf, 0xaa, 0x19, 0xfd, 
0x14, 0xf0, 0xd7, 0x8e, 0xfa, 0xd9, 0xdb, 0x21, 0xf0, 0xd2, 0x62, 0x82, 
0xf4, 0xc5, 0xa2, 0x4c, 0x0b, 0x5b, 0x1b, 0xb3, 0x1c, 0xc8, 0x0c, 0xc1, 
0xda, 0x93, 0x48, 0x00, 0xf2, 0x01, 0xd9, 0xf6, 0x2a, 0xd4, 0x72, 0x05, 
0xf6, 0xbc, 0xf3, 0xcd, 0x2f, 0xa2, 0x1b, 0xd5, 0xe4, 0xc8, 0x81, 0x70, 
0xb9, 0x9b, 0x10, 0xe1, 0xd1, 0xb1, 0x1c, 0xe6, 0x45, 0x09, 0x8e, 0x7c, 
0x81, 0xd3, 0x29, 0xda, 0xf9, 0xeb, 0xce, 0x08, 0x33, 0xf2, 0x49, 0xe8, 
0xb3, 0xc2, 0x93, 0x49, 0xc2, 0xa2, 0xcd, 0xa8, 0xbb, 0x3b, 0xc2, 0x76, 
0x28, 0x2f, 0x2e, 0x90, 0xb0, 0x95, 0xa3, 0x23, 0xc4, 0xba, 0xf7, 0xfe, 
0x3f, 0xe9, 0xe6, 0xfd, 0x71, 0x25, 0xe0, 0xf4, 0x44, 0xb0, 0xf2, 0x24, 
0x04, 0x2c, 0xd0, 0xe3, 0x2e, 0xee, 0x19, 0xef, 0xae, 0xea, 0xca, 0x31, 
0x3b, 0xea, 0x3f, 0x13, 0xd1, 0x34, 0x3e, 0x4e, 0x18, 0x35, 0x03, 0x3a, 
0x81, 0xf9, 0x20, 0x91, 0xa6, 0xf3, 0x15, 0x1d, 0x30, 0xea, 0x5d, 0x5a, 
0x6f, 0xe0, 0xa2, 0x0b, 0xe8, 0xe9, 0x2a, 0xe3, 0x29, 0x49, 0x55, 0xd5, 
0x3d, 0xa2, 0x7d, 0xd6, 0xc0, 0xcc, 0x1b, 0xc5, 0xf9, 0xf2, 0x07, 0xb2, 
0x0c, 0x37, 0x54, 0xd3, 0xc0, 0x56, 0x07, 0x0f, 0x20, 0x1e, 0xf7, 0xdb, 
0xae, 0x40, 0x29, 0x39, 0x27, 0x3b, 0x60, 0xa7, 0xe7, 0xc5, 0x76, 0xbe, 
0xbb, 0xb1, 0x1c, 0xd6, 0x36, 0xbc, 0x38, 0x23, 0x3c, 0x1b, 0x0b, 0x0a, 
0x1b, 0x3e, 0x1e, 0xd0, 0xa4, 0xcc, 0xfc, 0x99, 0xfe, 0xe0, 0x2c, 0xe8, 
0x30, 0xec, 0xf0, 0x69, 0x23, 0x1c, 0x92, 0x2d, 0x43, 0xd9, 0xbc, 0xf1, 
0x9e, 0xea, 0x9e, 0x73, 0xa5, 0x24, 0x38, 0x57, 0x2a, 0x57, 0x27, 0x30, 
0x66, 0xd8, 0xb7, 0x14, 0xfa, 0x28, 0xec, 0x76, 0x99, 0x63, 0x2d, 0x42, 
0xd9, 0x32, 0xd7, 0x11, 0xca, 0xd3, 0xce, 0xc0, 0xbc, 0xce, 0xb7, 0xfa, 
0x2b, 0x17, 0x46, 0xc8, 0x1b, 0x2d, 0x03, 0xd3, 0x5b, 0xee, 0xa5, 0xc7, 
0xc4, 0xd3, 0x1a, 0x7f, 0x03, 0x21, 0xe4, 0x26, 0xf2, 0x0f, 0x58, 0xc9, 
0x2c, 0xce, 0xb9, 0xf0, 0xfe, 0xf5, 0xa6, 0xcf, 0x9e, 0x1d, 0x07, 0x37, 
0x81, 0xa4, 0x39, 0xf0, 0xe8, 0xe1, 0x3a, 0xf0, 0x04, 0x04, 0xab, 0x91, 
0x8a, 0xed, 0xd3, 0x40, 0xda, 0x89, 0x0c, 0xc3, 0x1e, 0x1e, 0xca, 0xf0, 
0xd4, 0xe2, 0x82, 0xb2, 0x87, 0xd7, 0xcd, 0x05, 0xe2, 0xb7, 0x31, 0x24, 
0x11, 0x2c, 0xee, 0x29, 0x08, 0x01, 0x10, 0xfd, 0xed, 0x00, 0xde, 0xef, 
0xd4, 0xd8, 0x00, 0x01, 0x22, 0x33, 0x01, 0x23, 0xd3, 0x2f, 0x05, 0x3e, 
0xee, 0x14, 0x4e, 0x24, 0xb7, 0xef, 0x46, 0xfb, 0xee, 0xf9, 0xd8, 0x10, 
0xbc, 0x35, 0x23, 0xdc, 0xe8, 0xc9, 0x28, 0xd6, 0xbd, 0xd4, 0xe9, 0x18, 
0x51, 0x6a, 0xb8, 0x2d, 0x42, 0xdf, 0xd6, 0xe6, 0xed, 0x54, 0x1b, 0x0c, 
0xf1, 0xca, 0x58, 0xcd, 0x36, 0xfc, 0xf3, 0x31, 0xd2, 0x3f, 0xb5, 0xf2, 
0x30, 0x08, 0x4c, 0x0f, 0xae, 0xd7, 0x1e, 0xd0, 0xd5, 0x4a, 0x03, 0x08, 
0xbf, 0x10, 0xbc, 0x95, 0xad, 0x68, 0x5b, 0xe4, 0x81, 0xe7, 0xcd, 0x67, 
0x0a, 0xff, 0x37, 0xc9, 0x43, 0xf9, 0xc7, 0xe3, 0xd3, 0xa2, 0xda, 0xff, 
0xa5, 0xe7, 0xcc, 0x35, 0xee, 0x30, 0x57, 0xb0, 0xa6, 0xee, 0xff, 0xff, 
0x04, 0x00, 0x00, 0x00, 0x80, 0x00, 0x00, 0x00, 0xa3, 0xff, 0xff, 0xff, 
0x3a, 0x02, 0x00, 0x00, 0x3c, 0x00, 0x00, 0x00, 0x2c, 0xff, 0xff, 0xff, 
0xa5, 0x00, 0x00, 0x00, 0x4d, 0xff, 0xff, 0xff, 0xe9, 0xff, 0xff, 0xff, 
0xb8, 0xfe, 0xff, 0xff, 0xd4, 0x01, 0x00, 0x00, 0xc5, 0x00, 0x00, 0x00, 
0xdb, 0xff, 0xff, 0xff, 0x0c, 0xff, 0xff, 0xff, 0xc6, 0xfe, 0xff, 0xff, 
0x39, 0x00, 0x00, 0x00, 0x55, 0x00, 0x00, 0x00, 0x9b, 0xfd, 0xff, 0xff, 
0x37, 0xff, 0xff, 0xff, 0x82, 0x00, 0x00, 0x00, 0x83, 0xfd, 0xff, 0xff, 
0x45, 0x01, 0x00, 0x00, 0x60, 0xfe, 0xff, 0xff, 0x24, 0xff, 0xff, 0xff, 
0x83, 0xff, 0xff, 0xff, 0x69, 0x00, 0x00, 0x00, 0xa9, 0x00, 0x00, 0x00, 
0xb1, 0x00, 0x00, 0x00, 0xaf, 0xfe, 0xff, 0xff, 0x59, 0xff, 0xff, 0xff, 
0x0c, 0x00, 0x00, 0x00, 0x43, 0x00, 0x00, 0x00, 0xd9, 0xff, 0xff, 0xff, 
0xbf, 0xfe, 0xff, 0xff, 0x32, 0xef, 0xff, 0xff, 0x04, 0x00, 0x00, 0x00, 
0x00, 0x0c, 0x00, 0x00, 0x25, 0x61, 0x57, 0xd7, 0x95, 0x37, 0xd4, 0xf2, 
0xae, 0xd5, 0x3a, 0xc9, 0x50, 0x7f, 0xd7, 0xba, 0x3c, 0x0d, 0x54, 0xa6, 
0x5e, 0x26, 0x7e, 0xb6, 0xfb, 0xf2, 0x5d, 0x2b, 0x18, 0xb8, 0x71, 0xb7, 
0x06, 0xab, 0x1d, 0x5c, 0x29, 0xb0, 0xe5, 0xd9, 0x9a, 0x0e, 0xfc, 0x8e, 
0x43, 0xe0, 0x71, 0x0f, 0x05, 0xf3, 0x25, 0xca, 0x5d, 0xdf, 0x59, 0x06, 
0x68, 0xee, 0x4c, 0x3d, 0xaa, 0x0f, 0xe1, 0x56, 0xdf, 0x21, 0x0f, 0x08, 
0x3d, 0x04, 0x25, 0xa9, 0x02, 0x45, 0xd7, 0xf0, 0x26, 0xd1, 0x39, 0x7c, 
0x45, 0x7c, 0x3b, 0x01, 0x31, 0xe2, 0xe4, 0xc2, 0xb2, 0x48, 0x53, 0xce, 
0x4b, 0xb9, 0x04, 0x64, 0x40, 0x0d, 0x3d, 0xca, 0xcb, 0xb1, 0x0e, 0xca, 
0xbc, 0xfc, 0xaa, 0x14, 0x7a, 0x45, 0x5f, 0x21, 0x92, 0x34, 0x27, 0x2d, 
0x5f, 0x25, 0x01, 0x58, 0xdb, 0x2c, 0x32, 0xf3, 0xd7, 0x33, 0xc6, 0x45, 
0x58, 0xff, 0x3f, 0x96, 0xd2, 0x26, 0xf5, 0x8d, 0xf2, 0xbd, 0xb1, 0x81, 
0xd1, 0x45, 0x64, 0x5e, 0xeb, 0x4d, 0xf8, 0x12, 0xfd, 0xb7, 0x28, 0x07, 
0x34, 0x18, 0x1b, 0x00, 0xfa, 0xc8, 0xe5, 0x51, 0x20, 0xb2, 0xb4, 0xaf, 
0x36, 0xe8, 0x2b, 0x9c, 0xd3, 0x4e, 0x57, 0xb4, 0x50, 0x4a, 0x95, 0xc3, 
0xee, 0xd6, 0xc9, 0x5c, 0xb8, 0x39, 0xea, 0xa9, 0x40, 0x86, 0x5e, 0xf5, 
0x94, 0x0e, 0x0a, 0x13, 0x9b, 0xd3, 0xed, 0x22, 0x62, 0x23, 0x3e, 0x2f, 
0x0d, 0x36, 0xbb, 0xe0, 0x07, 0x83, 0xeb, 0xd7, 0xbe, 0x48, 0xe2, 0xdd, 
0x1e, 0xb9, 0x1f, 0xe2, 0xe0, 0xff, 0xed, 0xfd, 0x4c, 0xe0, 0x1a, 0xc8, 
0xdf, 0xe5, 0xfa, 0x64, 0x40, 0x2e, 0x48, 0x26, 0xf7, 0xc7, 0xf7, 0xcf, 
0xdf, 0xbd, 0x0b, 0xc0, 0x26, 0x3c, 0xf7, 0x0e, 0xee, 0xcc, 0xbf, 0x9f, 
0x0e, 0x3a, 0xde, 0xcf, 0x33, 0xb4, 0x03, 0xb2, 0xa6, 0xaf, 0x81, 0x2c, 
0x10, 0x28, 0x1b, 0xcf, 0x08, 0xc2, 0x23, 0xec, 0xd4, 0x23, 0x4c, 0xbc, 
0x26, 0x51, 0x9a, 0x40, 0x25, 0xd9, 0xde, 0x26, 0xd4, 0x6f, 0x24, 0x31, 
0xf6, 0xf4, 0xdb, 0xde, 0x37, 0x36, 0xc8, 0x3b, 0xa8, 0xc7, 0xef, 0x36, 
0xfe, 0xdf, 0xf3, 0xd6, 0xb7, 0x0e, 0x37, 0x18, 0xfb, 0x12, 0xad, 0xc8, 
0x17, 0xca, 0x08, 0x33, 0xcd, 0x02, 0xcf, 0xfa, 0xf7, 0x62, 0xb9, 0x41, 
0x1c, 0x14, 0x13, 0x2c, 0xc7, 0x09, 0x0a, 0xde, 0x1c, 0x2a, 0x0d, 0x0a, 
0xc0, 0xaa, 0xef, 0xec, 0xf2, 0x11, 0xc1, 0xf8, 0x31, 0x13, 0xe6, 0x26, 
0x55, 0x0f, 0xa2, 0x3a, 0x3e, 0xe2, 0xad, 0xf6, 0xda, 0x2f, 0x1c, 0xd0, 
0xbd, 0x1c, 0x32, 0xff, 0x41, 0x26, 0xbc, 0xf7, 0x13, 0x36, 0x48, 0x17, 
0x26, 0xeb, 0xb2, 0x1e, 0xae, 0xd2, 0x19, 0x39, 0x28, 0xdd, 0x81, 0xdc, 
0x23, 0x1a, 0xcc, 0xe0, 0x2a, 0xe7, 0x0c, 0x7f, 0x1a, 0xff, 0x0c, 0x4b, 
0xd0, 0xb2, 0xff, 0xf4, 0x03, 0xe4, 0x4f, 0xcb, 0x1b, 0xe8, 0xf1, 0x21, 
0x27, 0x03, 0x06, 0xcd, 0x24, 0xdc, 0x0f, 0x34, 0xff, 0x10, 0x02, 0x41, 
0x2c, 0x26, 0x36, 0x20, 0xbf, 0xef, 0xc9, 0xf4, 0xe6, 0x22, 0x19, 0xea, 
0x20, 0xf7, 0xf4, 0x0b, 0xfc, 0xb7, 0xdd, 0x96, 0x12, 0xc4, 0x42, 0xf7, 
0xd5, 0x26, 0x33, 0xe2, 0xe2, 0x3b, 0xd0, 0xf3, 0x0b, 0xda, 0x09, 0x06, 
0xd5, 0x17, 0xef, 0xde, 0xf2, 0x4f, 0x27, 0xe7, 0xef, 0xfd, 0xe9, 0x4d, 
0x8f, 0x19, 0x32, 0xa0, 0xfb, 0x46, 0x44, 0xf0, 0x0c, 0x1b, 0x0f, 0x23, 
0xf8, 0x3a, 0xc9, 0xd3, 0x0e, 0xd4, 0x8e, 0xef, 0x1b, 0xf7, 0xcb, 0x2c, 
0x3d, 0xcd, 0xc1, 0xe3, 0x48, 0x7f, 0xfa, 0x49, 0x13, 0xb5, 0x09, 0xb8, 
0x20, 0xca, 0xf3, 0x02, 0xf4, 0xd4, 0x0c, 0xbd, 0x3c, 0xfb, 0x38, 0xf0, 
0xd6, 0xf9, 0x96, 0xbb, 0x1e, 0xfa, 0x07, 0x33, 0x38, 0x14, 0x2c, 0x0e, 
0xb9, 0x03, 0xf2, 0x48, 0xd1, 0xb2, 0x2a, 0x1e, 0xce, 0x25, 0x54, 0x6f, 
0xdc, 0xb2, 0x4a, 0xb0, 0xc5, 0x18, 0x3a, 0xd2, 0x0d, 0xd7, 0x03, 0x2a, 
0xf5, 0x19, 0x29, 0xf1, 0x15, 0xdc, 0xc1, 0xd8, 0x9e, 0xf7, 0xa9, 0xd4, 
0x25, 0xce, 0x1e, 0x9e, 0x34, 0x35, 0x54, 0xb0, 0xbe, 0x8c, 0xcd, 0x04, 
0xda, 0xc1, 0xd6, 0x90, 0x35, 0xa6, 0x49, 0xf4, 0xe7, 0xc2, 0xbd, 0x12, 
0x7f, 0x4f, 0xfb, 0xe6, 0xe5, 0x37, 0xf9, 0xd1, 0xd4, 0x42, 0x06, 0x03, 
0x1b, 0xd6, 0x11, 0xba, 0x14, 0xd8, 0x40, 0xbc, 0x9e, 0xfc, 0xf2, 0x42, 
0x9a, 0xfb, 0xc1, 0xf2, 0x1b, 0xa8, 0xfc, 0x3d, 0x4c, 0x46, 0xd1, 0x24, 
0xfe, 0x43, 0xe8, 0xd3, 0x17, 0xf0, 0x41, 0x3d, 0x4f, 0x50, 0x48, 0xe3, 
0xd5, 0x82, 0x14, 0x38, 0xaa, 0xdf, 0x99, 0x1d, 0x16, 0x3c, 0x99, 0x84, 
0x4e, 0x2b, 0xe1, 0xf3, 0x0e, 0xa0, 0x19, 0xcd, 0x05, 0x5e, 0xc7, 0x14, 
0xd8, 0x3f, 0x0b, 0x3e, 0xec, 0x2c, 0xff, 0xa8, 0x04, 0x9f, 0x20, 0x95, 
0x33, 0xd6, 0x08, 0x03, 0xb1, 0x31, 0xd6, 0xd0, 0x1c, 0x09, 0x52, 0x0b, 
0x47, 0xdc, 0xbe, 0xb4, 0x5d, 0x5f, 0xde, 0x53, 0x24, 0xcf, 0x11, 0xe4, 
0xf7, 0x34, 0xe8, 0xe1, 0x35, 0xb0, 0x2d, 0xa6, 0xbd, 0xca, 0xb9, 0x45, 
0x37, 0x32, 0x21, 0xc8, 0x18, 0xcf, 0xbf, 0xb5, 0x2d, 0xe7, 0x98, 0x45, 
0xd9, 0x1c, 0x56, 0x48, 0xb0, 0x04, 0xf4, 0x4e, 0x75, 0x2b, 0xf8, 0x34, 
0xaf, 0xea, 0x02, 0x2c, 0xed, 0x04, 0x39, 0x37, 0xae, 0x0d, 0x4a, 0x84, 
0x08, 0xcd, 0xc1, 0xae, 0x32, 0xdc, 0xec, 0xd2, 0xf2, 0x18, 0x46, 0xc0, 
0xb0, 0xe4, 0x50, 0x1a, 0x44, 0xd1, 0x34, 0x81, 0xf4, 0x96, 0xff, 0xc7, 
0xb7, 0xfb, 0x8f, 0xe0, 0x3e, 0x81, 0xdb, 0x3b, 0x13, 0x4a, 0x58, 0xd7, 
0x38, 0x1e, 0x37, 0xf2, 0x29, 0x29, 0x40, 0x77, 0xd6, 0x18, 0xf1, 0x02, 
0x65, 0xdd, 0x72, 0xe9, 0xcb, 0x10, 0x7d, 0xca, 0xb9, 0xcc, 0x49, 0x0d, 
0x41, 0x9b, 0x9d, 0xe7, 0xe3, 0x66, 0xcb, 0x32, 0x0d, 0x9f, 0x47, 0xd2, 
0x48, 0xd9, 0xed, 0x73, 0x07, 0xb3, 0x36, 0xff, 0x3b, 0x41, 0xee, 0x7e, 
0x83, 0x59, 0xde, 0xe0, 0xbe, 0xba, 0xf3, 0x28, 0x05, 0xda, 0xae, 0x63, 
0x1a, 0xc6, 0xce, 0x3a, 0x87, 0x18, 0x41, 0x22, 0xcc, 0xaf, 0xd2, 0xbe, 
0x2e, 0x09, 0x24, 0xd1, 0xcb, 0x57, 0x7c, 0x1e, 0xe6, 0x1b, 0xe0, 0x06, 
0xfb, 0xb5, 0xcd, 0x4a, 0x22, 0x2a, 0x21, 0x91, 0xfa, 0xfc, 0xbe, 0x18, 
0xef, 0xc3, 0x46, 0x1a, 0x59, 0x5c, 0x0e, 0x38, 0x8a, 0xc6, 0xcc, 0xfd, 
0x4e, 0x03, 0x21, 0xda, 0x13, 0xf2, 0x50, 0xc8, 0x0e, 0x24, 0x02, 0xc0, 
0x24, 0xbe, 0x4b, 0xb5, 0xdb, 0x08, 0x24, 0x97, 0xda, 0x2c, 0x11, 0xab, 
0x14, 0xde, 0x3e, 0x33, 0x22, 0x00, 0xff, 0x1d, 0xce, 0x24, 0x90, 0x45, 
0x3b, 0xfd, 0xeb, 0x0b, 0xc4, 0x01, 0x9e, 0xe2, 0x37, 0xbc, 0xbe, 0xbe, 
0xfa, 0xb5, 0x19, 0xf1, 0xf6, 0xf0, 0x7f, 0xa6, 0x38, 0x06, 0xb5, 0x44, 
0xce, 0x48, 0xf4, 0x10, 0xd2, 0xc6, 0x87, 0x4d, 0xfb, 0xe1, 0x29, 0xce, 
0xee, 0x15, 0x21, 0x4a, 0xfb, 0xe6, 0x0f, 0x7f, 0xdd, 0xfc, 0x15, 0x54, 
0xe5, 0x0a, 0x33, 0xc8, 0xbb, 0xb6, 0x27, 0x2a, 0x3c, 0xfe, 0xcb, 0x4d, 
0x2c, 0xc6, 0xf2, 0x2f, 0x00, 0xe2, 0xdc, 0x44, 0xea, 0x2a, 0xf8, 0x2a, 
0x24, 0x36, 0xf3, 0xd0, 0xf6, 0xc7, 0x37, 0xf4, 0x37, 0xb8, 0x0b, 0xc0, 
0xcb, 0xf5, 0xec, 0xd6, 0xf7, 0xeb, 0xbf, 0xc1, 0x31, 0xdf, 0xbe, 0xde, 
0xe4, 0xfa, 0x23, 0xc8, 0x3f, 0x3e, 0xf1, 0xe1, 0x0a, 0x19, 0x18, 0xf8, 
0xc7, 0xf0, 0x1f, 0xe0, 0xd1, 0x23, 0xe6, 0xee, 0x8f, 0x00, 0xbd, 0x2a, 
0xb1, 0xeb, 0xe4, 0x04, 0x09, 0xc6, 0xa9, 0x27, 0x10, 0xf8, 0x9a, 0xd5, 
0x3f, 0x3c, 0xc8, 0xb2, 0xdb, 0x52, 0x2a, 0xbd, 0xdf, 0xd2, 0x0f, 0x05, 
0x15, 0x01, 0xd6, 0x0c, 0xcd, 0x06, 0x23, 0x29, 0xd6, 0x10, 0x1a, 0xd1, 
0xea, 0xdb, 0xe8, 0x2d, 0x2a, 0xcc, 0xe6, 0x06, 0x34, 0xd5, 0x1c, 0x36, 
0xe3, 0x47, 0x3b, 0x81, 0x15, 0x17, 0x2b, 0xf1, 0xda, 0xec, 0xc0, 0xd4, 
0x3f, 0x15, 0x3a, 0xdb, 0xa2, 0xbb, 0x0b, 0x2c, 0xfa, 0xee, 0x37, 0x1a, 
0xca, 0x1f, 0xdd, 0xf6, 0xca, 0xfc, 0x04, 0x0d, 0xc4, 0x1f, 0xe6, 0xd9, 
0x1b, 0x23, 0x2a, 0xda, 0x33, 0x44, 0xe9, 0xd4, 0x33, 0xf2, 0x12, 0xd1, 
0xe2, 0x1a, 0xbe, 0x49, 0xec, 0x3b, 0xd9, 0x36, 0x19, 0xd8, 0x06, 0xcb, 
0xc6, 0x11, 0x08, 0x2b, 0x47, 0x8b, 0xe0, 0xa3, 0xfd, 0x22, 0x20, 0x5d, 
0xf9, 0xb9, 0xab, 0x2e, 0xe2, 0xf6, 0x88, 0x8e, 0xb2, 0xd6, 0x3c, 0x50, 
0x21, 0xff, 0x11, 0xf1, 0x07, 0x61, 0x5c, 0xbd, 0xc7, 0xce, 0x3f, 0xd0, 
0xf4, 0xdf, 0x82, 0xf4, 0x52, 0xc4, 0xd8, 0xce, 0x52, 0xfa, 0xfc, 0xc6, 
0xa9, 0x9e, 0xc3, 0x81, 0xc7, 0x2d, 0xec, 0x51, 0xeb, 0xf9, 0xa3, 0xfc, 
0x0f, 0xee, 0xd5, 0x0a, 0xe8, 0x44, 0x46, 0xd4, 0x28, 0xf8, 0x93, 0x75, 
0xb8, 0xc2, 0x35, 0x02, 0x4f, 0xfd, 0x43, 0xf9, 0x28, 0x93, 0x14, 0x13, 
0x1e, 0xf9, 0xcf, 0x19, 0x28, 0xce, 0x07, 0x5c, 0x5c, 0x51, 0xff, 0x2c, 
0x95, 0x1e, 0xd9, 0x9d, 0x39, 0x50, 0x94, 0xdb, 0xde, 0xb5, 0xce, 0x25, 
0xbf, 0xf2, 0xe8, 0xef, 0x53, 0xc0, 0x22, 0xed, 0x08, 0x37, 0x9e, 0x7f, 
0xd9, 0xcd, 0xd3, 0xc4, 0xfb, 0xc5, 0x54, 0x32, 0x09, 0x36, 0x19, 0x62, 
0x65, 0x2f, 0x42, 0xdd, 0x5e, 0x9d, 0xd8, 0x48, 0x0b, 0xb4, 0xc5, 0x35, 
0xfd, 0x22, 0x16, 0xc4, 0x0e, 0xca, 0x85, 0x3a, 0x51, 0xa0, 0x1d, 0x08, 
0x17, 0x83, 0xd9, 0xc9, 0xb9, 0x28, 0xc8, 0xde, 0x40, 0x63, 0x42, 0xea, 
0x26, 0x2c, 0x7f, 0xce, 0xfb, 0xe1, 0x0f, 0xbd, 0x0d, 0x9f, 0x0b, 0xac, 
0xf6, 0xb3, 0x9f, 0x54, 0x30, 0xbf, 0x0c, 0xad, 0x30, 0x9d, 0x30, 0xc3, 
0xaa, 0x25, 0xa6, 0xd4, 0xb6, 0x85, 0x28, 0x3c, 0x9a, 0x94, 0xbb, 0xf9, 
0x01, 0xa4, 0xd3, 0xf1, 0x01, 0x81, 0x09, 0xb8, 0x32, 0x31, 0xfa, 0xd3, 
0xe6, 0x08, 0x1b, 0xb9, 0xe1, 0xe9, 0x8d, 0x6c, 0xfe, 0xf2, 0x3a, 0x36, 
0xc7, 0x04, 0xc3, 0x48, 0x37, 0xe3, 0xd5, 0x0d, 0xaf, 0xf1, 0xdd, 0x15, 
0xff, 0xe1, 0x2e, 0x1c, 0xc6, 0xed, 0x3b, 0x34, 0xd2, 0x12, 0xf5, 0xda, 
0xba, 0x15, 0x06, 0x3f, 0xc6, 0xea, 0x13, 0x56, 0x24, 0xfc, 0x06, 0x64, 
0xc9, 0xc7, 0xda, 0xd0, 0x98, 0x40, 0x43, 0x38, 0x6c, 0x5a, 0x16, 0x5b, 
0x13, 0x12, 0x34, 0xbf, 0xf2, 0xf2, 0x56, 0xe4, 0xdc, 0xfb, 0x51, 0xe0, 
0xdf, 0x09, 0x1e, 0xe4, 0x0b, 0x11, 0xa0, 0x7f, 0x56, 0x28, 0x42, 0x5e, 
0x43, 0xe7, 0xed, 0xb4, 0xc0, 0xf1, 0x20, 0xc7, 0xac, 0xd1, 0xfd, 0xf5, 
0x21, 0x4a, 0x06, 0x52, 0xb3, 0xcc, 0xfc, 0xe3, 0x28, 0x5f, 0xb8, 0xe9, 
0xf3, 0x07, 0xb3, 0x32, 0xc4, 0xb3, 0x45, 0x3b, 0x33, 0xe8, 0x37, 0xb8, 
0x40, 0x35, 0x0a, 0xe9, 0xea, 0xdb, 0xdb, 0x40, 0xd0, 0x21, 0xfb, 0x26, 
0xc5, 0xfc, 0xf8, 0x12, 0x02, 0x34, 0x39, 0x22, 0x11, 0x0a, 0xba, 0xcf, 
0x2d, 0xd9, 0x39, 0xf1, 0x71, 0x1a, 0x2a, 0xd2, 0xee, 0x2b, 0x07, 0xc3, 
0x3b, 0x26, 0xf9, 0x2e, 0x0f, 0xf8, 0xba, 0x49, 0xf1, 0xc4, 0x9f, 0xdc, 
0xab, 0xfc, 0xcc, 0xdf, 0xec, 0x7b, 0x06, 0x12, 0x40, 0xc9, 0x0e, 0x8c, 
0xf5, 0x04, 0x12, 0xf6, 0x3b, 0xb4, 0x35, 0x00, 0xf5, 0x68, 0x1a, 0xef, 
0x5d, 0x12, 0x31, 0x2b, 0x34, 0x27, 0xdb, 0xed, 0x0e, 0xea, 0x09, 0xbf, 
0xd1, 0x5d, 0x0e, 0xeb, 0x12, 0xd2, 0xfe, 0x4e, 0xe3, 0x51, 0x1f, 0x98, 
0x66, 0x61, 0x3b, 0xec, 0xa9, 0x66, 0xa7, 0xb2, 0x48, 0x51, 0xa9, 0x03, 
0xf8, 0x81, 0xe1, 0xab, 0x05, 0xd1, 0x47, 0x26, 0xc3, 0xc4, 0xf2, 0xc6, 
0x20, 0x2b, 0x0e, 0xae, 0x2c, 0x66, 0xea, 0x9a, 0xcf, 0x67, 0x37, 0xb2, 
0xfc, 0x3b, 0xf7, 0x50, 0x38, 0x0b, 0x8d, 0x8a, 0x4f, 0x85, 0x6b, 0xc0, 
0xd9, 0x14, 0x28, 0xd8, 0xc3, 0xd0, 0xf1, 0x7f, 0x8d, 0xce, 0xfa, 0xef, 
0x1d, 0x06, 0x27, 0xba, 0x27, 0xf3, 0x45, 0xdc, 0x68, 0xf7, 0xdd, 0xfa, 
0xc5, 0x2c, 0x1c, 0x5a, 0x1e, 0x0d, 0xad, 0x17, 0x20, 0x32, 0xd8, 0xcb, 
0xdc, 0xe0, 0xdc, 0x58, 0xbf, 0x36, 0xf8, 0x58, 0x12, 0xfb, 0xf3, 0xe3, 
0x30, 0xcb, 0xe8, 0xee, 0x12, 0xbf, 0x10, 0xfd, 0x26, 0x10, 0xf6, 0xd5, 
0x30, 0xdb, 0x10, 0xe7, 0xe1, 0x3b, 0xec, 0xcf, 0x1f, 0x2c, 0x23, 0xd6, 
0xb3, 0x04, 0xe7, 0x42, 0x03, 0xfa, 0xea, 0xd2, 0x11, 0xed, 0xab, 0x22, 
0xe8, 0xc4, 0xd7, 0x92, 0xf7, 0xf3, 0xfd, 0xeb, 0x28, 0xee, 0x0a, 0x1f, 
0x08, 0x12, 0x09, 0xb3, 0x18, 0xea, 0xe1, 0xc9, 0xd3, 0xfc, 0xf2, 0x4a, 
0x24, 0xdb, 0x41, 0xc6, 0x05, 0x10, 0xb4, 0xf3, 0x25, 0xea, 0xc4, 0x24, 
0xad, 0x28, 0x9b, 0x0a, 0x1f, 0xf9, 0x1d, 0xcd, 0xf6, 0x33, 0xce, 0xe4, 
0xd4, 0xe8, 0x22, 0x23, 0xb1, 0x1b, 0xee, 0xc5, 0x3d, 0xf8, 0xeb, 0xcf, 
0xb4, 0x0c, 0x15, 0x04, 0x0a, 0x15, 0xd5, 0xe3, 0xd2, 0x13, 0xc7, 0x46, 
0x0e, 0x25, 0xed, 0x2a, 0xed, 0xe6, 0xd1, 0x18, 0xbd, 0xef, 0x53, 0x25, 
0xcd, 0xcc, 0x3e, 0x0b, 0x28, 0xcd, 0x4b, 0xd9, 0x14, 0xe8, 0xf9, 0xce, 
0x27, 0xb9, 0xb3, 0x45, 0x25, 0xef, 0x14, 0x7f, 0xcf, 0x3d, 0x09, 0x06, 
0x0b, 0xcd, 0x0e, 0x11, 0xcb, 0x05, 0xdd, 0x46, 0xf5, 0xc4, 0xe4, 0xda, 
0x1b, 0x15, 0x11, 0xe7, 0xde, 0xf2, 0x1c, 0xc4, 0x27, 0xf1, 0xe6, 0xf5, 
0xb9, 0xef, 0x13, 0xe9, 0xfe, 0x15, 0x88, 0x35, 0x21, 0xd8, 0x7f, 0xcf, 
0xd2, 0xd6, 0xfd, 0x13, 0xfc, 0xc1, 0x30, 0xf6, 0xec, 0xf5, 0xd7, 0xb6, 
0x29, 0xcf, 0x2b, 0xb4, 0x38, 0xe1, 0xb8, 0xde, 0xcf, 0x3d, 0xbc, 0xdb, 
0xed, 0x41, 0x1e, 0xfa, 0xe5, 0x26, 0xff, 0xeb, 0xdb, 0xee, 0xbd, 0x13, 
0x4f, 0xd3, 0xbf, 0xcc, 0x18, 0x0e, 0xb9, 0xf6, 0x3e, 0xfb, 0xfe, 0x53, 
0xc5, 0x31, 0xe5, 0x44, 0xf8, 0xe4, 0x2d, 0xfd, 0xc3, 0xed, 0xf9, 0x3b, 
0x07, 0xc7, 0x36, 0x4f, 0xea, 0xb4, 0xa3, 0xfb, 0x50, 0x2b, 0x20, 0xe1, 
0x3f, 0x13, 0xd7, 0xfe, 0xce, 0x91, 0x40, 0xb6, 0x3d, 0xea, 0xfa, 0xe1, 
0x00, 0x28, 0xfa, 0x23, 0x04, 0xf2, 0x44, 0x37, 0x0c, 0xef, 0x1a, 0xd4, 
0x04, 0xf6, 0xd5, 0x7f, 0xea, 0x17, 0xdc, 0x33, 0xd0, 0xca, 0x2f, 0xe0, 
0x2c, 0xf0, 0x2f, 0xdf, 0x27, 0xde, 0xf3, 0xfa, 0xb1, 0x3b, 0x09, 0x39, 
0x1b, 0x36, 0xad, 0x41, 0xd7, 0xd6, 0x24, 0xae, 0x22, 0xed, 0xa5, 0x6f, 
0xc0, 0x26, 0xdc, 0xc8, 0x20, 0xdf, 0x17, 0x06, 0x37, 0xfb, 0x4c, 0xe0, 
0x47, 0x27, 0x30, 0xc3, 0x4c, 0xc1, 0xa7, 0x0c, 0x20, 0xb5, 0xfd, 0x3a, 
0x5f, 0x16, 0x09, 0x11, 0x61, 0xe4, 0x41, 0x38, 0x3d, 0xd6, 0xa7, 0x18, 
0x5c, 0x52, 0x3c, 0xc3, 0x2d, 0xd4, 0x94, 0x39, 0xec, 0xb8, 0xda, 0xfe, 
0x2b, 0x2d, 0xcc, 0xc6, 0xa3, 0x42, 0xc4, 0xee, 0x22, 0x2d, 0xf3, 0xa3, 
0xbc, 0x99, 0x0f, 0xa6, 0x30, 0xef, 0xb1, 0x4a, 0xf3, 0x3f, 0x32, 0x81, 
0x33, 0x0c, 0x13, 0xbc, 0x6e, 0xd4, 0x1a, 0x66, 0xc4, 0x5f, 0xb7, 0x20, 
0x41, 0xda, 0x45, 0xba, 0x05, 0x10, 0xde, 0xf0, 0x1f, 0x74, 0x87, 0xb3, 
0x27, 0x9b, 0xde, 0x07, 0xe0, 0x47, 0xec, 0xa4, 0x41, 0x5e, 0x07, 0x06, 
0xdc, 0x4d, 0xd2, 0x41, 0x45, 0x18, 0xfb, 0xf2, 0x36, 0x0d, 0xa0, 0x81, 
0x39, 0x12, 0xaf, 0xad, 0x22, 0x30, 0x0e, 0x4c, 0x18, 0xdd, 0x4c, 0x03, 
0xf8, 0xf4, 0x3c, 0xc1, 0xef, 0xe5, 0x0f, 0x38, 0x2d, 0xea, 0x0a, 0x20, 
0xaf, 0xb7, 0xb0, 0x7f, 0x42, 0x3f, 0xc5, 0xb6, 0x34, 0x57, 0xad, 0x72, 
0xde, 0x2d, 0x39, 0x50, 0xda, 0xf9, 0x72, 0x0d, 0xd5, 0x31, 0x13, 0xd6, 
0xc9, 0xce, 0xfe, 0x0c, 0x4b, 0xb8, 0xe2, 0x23, 0xc8, 0x96, 0xbc, 0xed, 
0x1b, 0x13, 0xf2, 0xe3, 0x52, 0x18, 0xf9, 0x2b, 0xf6, 0x46, 0x26, 0xc4, 
0x20, 0xd1, 0x2c, 0xf4, 0xb8, 0x25, 0x53, 0xda, 0x9d, 0xd4, 0xdf, 0xe3, 
0x00, 0xa6, 0xcf, 0xa7, 0xee, 0x9d, 0x94, 0xeb, 0xef, 0x13, 0xb1, 0xe2, 
0x20, 0x3e, 0xee, 0x07, 0xbb, 0x04, 0xef, 0xc2, 0x38, 0xff, 0x2c, 0xe3, 
0x3b, 0xa9, 0x1c, 0x52, 0x81, 0x1e, 0x37, 0x87, 0xe3, 0xef, 0xd0, 0x57, 
0xdf, 0xfa, 0x9a, 0xf4, 0x24, 0x42, 0xe8, 0xca, 0xec, 0x1a, 0x2a, 0xd6, 
0xc1, 0xd6, 0xe2, 0x01, 0x2a, 0xd5, 0x2a, 0xd3, 0x01, 0xa5, 0xe3, 0xd9, 
0x1d, 0xe9, 0x02, 0xfe, 0xfd, 0x1e, 0xdc, 0xda, 0xd6, 0x3c, 0xbe, 0xb0, 
0x9a, 0xcc, 0xe5, 0x42, 0xa1, 0xef, 0x49, 0xe1, 0xf4, 0xa2, 0xdb, 0x34, 
0xfc, 0x9e, 0xf6, 0xff, 0xc5, 0xb6, 0x02, 0xec, 0x12, 0xc4, 0x38, 0x40, 
0x19, 0xfc, 0x0e, 0x02, 0x1f, 0xd7, 0xad, 0x2d, 0xe3, 0xdf, 0x72, 0x46, 
0x44, 0x0b, 0x39, 0x0d, 0xd5, 0xf9, 0xcb, 0x06, 0x40, 0x12, 0xbf, 0xd5, 
0xd6, 0xf5, 0x10, 0xfc, 0xf0, 0x0d, 0xf6, 0x92, 0xb4, 0x31, 0x10, 0xf2, 
0xc7, 0xba, 0xfe, 0x0f, 0xe8, 0x52, 0xfc, 0xe2, 0xe7, 0xec, 0x08, 0x1c, 
0xdb, 0xb1, 0xd4, 0x51, 0x5a, 0xfe, 0xfe, 0xf4, 0xe9, 0xdc, 0xfe, 0x26, 
0xd3, 0x07, 0xf1, 0xfb, 0x14, 0x2a, 0xcb, 0x35, 0xb4, 0xf5, 0xba, 0x3b, 
0xe3, 0xff, 0xc6, 0xf9, 0xf8, 0xaf, 0xf2, 0xcd, 0xfc, 0xf9, 0x06, 0x2e, 
0xdd, 0xdb, 0x21, 0xf8, 0x06, 0xb5, 0xfa, 0xe1, 0xf6, 0xfb, 0x36, 0xd7, 
0x41, 0xf7, 0xc9, 0x50, 0x06, 0xe6, 0x81, 0x3c, 0xe8, 0x19, 0xff, 0x38, 
0xbe, 0xef, 0x1d, 0xf8, 0xb7, 0xd5, 0xc2, 0xb8, 0x25, 0xea, 0xff, 0xa9, 
0x42, 0x29, 0x48, 0x34, 0x39, 0xbd, 0xb6, 0x0e, 0xd2, 0x99, 0xd0, 0x25, 
0x33, 0x13, 0xc1, 0x09, 0x40, 0x31, 0x9b, 0x1b, 0xda, 0x47, 0x29, 0x1c, 
0x5d, 0x13, 0x0c, 0x8a, 0xfc, 0xa1, 0xf5, 0xd7, 0x30, 0xac, 0x4c, 0x81, 
0xda, 0xd8, 0x1b, 0xe4, 0xbb, 0xbe, 0x15, 0xa6, 0xb0, 0xcc, 0xda, 0x3a, 
0x1d, 0xb5, 0x33, 0x13, 0xff, 0x04, 0x0c, 0xbc, 0x1b, 0xec, 0x4d, 0x11, 
0xf1, 0x3d, 0x3a, 0x02, 0xfb, 0x08, 0xc6, 0xe5, 0xe8, 0xeb, 0xee, 0xa1, 
0x3d, 0xcc, 0xd5, 0xdb, 0xc1, 0xe1, 0x12, 0x3e, 0xa7, 0xfe, 0xfe, 0x1a, 
0xeb, 0x1c, 0x25, 0xbf, 0xb6, 0x8e, 0xea, 0xf8, 0xd0, 0x9c, 0x29, 0xed, 
0x25, 0x8e, 0xe4, 0xf5, 0xe5, 0xce, 0xeb, 0xd2, 0x62, 0x1e, 0xd7, 0x1b, 
0xae, 0x2f, 0x05, 0xde, 0xb9, 0x05, 0x81, 0x0d, 0xed, 0xb2, 0x4b, 0xe5, 
0xd2, 0xbf, 0xb6, 0x43, 0xdc, 0xf1, 0xf4, 0x02, 0xc7, 0xcf, 0xca, 0x0d, 
0x00, 0xc7, 0xdb, 0xf6, 0x08, 0x26, 0x0d, 0xf5, 0xcc, 0x31, 0xc1, 0xd1, 
0xc6, 0x08, 0xe7, 0x43, 0xeb, 0x2f, 0x1c, 0x3e, 0x1b, 0x99, 0xd1, 0x4c, 
0xe2, 0xda, 0x09, 0x34, 0xa6, 0xe9, 0x08, 0x0e, 0x4f, 0xef, 0x00, 0x42, 
0x0a, 0x14, 0xfc, 0x25, 0x23, 0xd8, 0xef, 0x2f, 0xbf, 0x09, 0x5b, 0x35, 
0x32, 0xd2, 0x47, 0x3a, 0x05, 0x33, 0x17, 0x81, 0x06, 0xdc, 0xf8, 0xab, 
0x4e, 0xb8, 0xd8, 0xf1, 0x34, 0x37, 0x3a, 0xf2, 0x2a, 0xff, 0xf8, 0x2a, 
0x04, 0xf4, 0x6a, 0x84, 0xe8, 0x01, 0x0e, 0x37, 0xfe, 0x17, 0xf0, 0x1a, 
0x25, 0x5b, 0x45, 0x9e, 0x2e, 0xad, 0x09, 0xcb, 0x2c, 0x09, 0x4d, 0xd1, 
0x43, 0x10, 0xdf, 0xd9, 0x03, 0xf5, 0xf0, 0xcb, 0x08, 0xe9, 0x2f, 0xab, 
0x32, 0xbe, 0x0a, 0x5a, 0x9c, 0xe5, 0x12, 0xf7, 0x0f, 0x65, 0x2d, 0xf9, 
0xb6, 0xc4, 0x9b, 0xdb, 0xe2, 0xe3, 0x2f, 0xcf, 0x45, 0x31, 0xf5, 0xb3, 
0xe4, 0x6a, 0xf8, 0xc1, 0x40, 0x2e, 0x20, 0xab, 0x24, 0xe4, 0xa2, 0x65, 
0xaf, 0x02, 0xc8, 0x1a, 0xfc, 0x81, 0xcb, 0x34, 0x02, 0xc5, 0xff, 0xb5, 
0x53, 0xdc, 0xe4, 0xf7, 0x57, 0x42, 0xb9, 0x46, 0xc1, 0x3d, 0x48, 0x03, 
0x44, 0xd3, 0x00, 0xb4, 0xec, 0xa2, 0x15, 0xa9, 0x2e, 0x0c, 0xe4, 0x3d, 
0xf2, 0xb3, 0xed, 0x08, 0xe0, 0x10, 0xcd, 0xeb, 0x42, 0x32, 0xb3, 0xe3, 
0x30, 0x08, 0x98, 0x5b, 0xf4, 0xe4, 0x4a, 0x16, 0x44, 0xdc, 0x09, 0xb1, 
0x3e, 0xc0, 0x1c, 0xae, 0x47, 0xb1, 0xcd, 0xcc, 0xe9, 0x33, 0xd4, 0x28, 
0x93, 0x2a, 0xe5, 0x0a, 0xc6, 0xe1, 0xc2, 0x13, 0xeb, 0xef, 0xe4, 0x4c, 
0xeb, 0xe8, 0x22, 0xe0, 0xe9, 0x3e, 0x2e, 0xc2, 0x13, 0xa2, 0x0a, 0x17, 
0x14, 0xaa, 0xcf, 0xf3, 0x11, 0x1d, 0xe0, 0x7f, 0xe7, 0xcf, 0x1f, 0x03, 
0xd8, 0x19, 0xcf, 0xdd, 0xc8, 0x0e, 0xfd, 0xda, 0x3b, 0xdf, 0x21, 0x30, 
0xf6, 0x35, 0x23, 0x24, 0x3d, 0xbb, 0xcb, 0xef, 0x04, 0x2b, 0xc2, 0xcf, 
0x5a, 0xdf, 0xdd, 0x5b, 0x2c, 0xee, 0x1c, 0x42, 0xde, 0xd0, 0x01, 0x12, 
0x0b, 0xd9, 0xd0, 0xc3, 0xe6, 0xcd, 0xc7, 0xcf, 0xbe, 0x18, 0x2a, 0x01, 
0x19, 0xde, 0xdc, 0x16, 0x2b, 0x3a, 0xe6, 0x43, 0x37, 0xfb, 0xe1, 0xd9, 
0xf6, 0x35, 0x39, 0x38, 0x1f, 0x2f, 0xc9, 0x23, 0xd7, 0xfc, 0xda, 0x09, 
0xef, 0x09, 0xf1, 0x20, 0x36, 0xca, 0xcd, 0x46, 0xed, 0x37, 0xd4, 0xcb, 
0xd7, 0x35, 0xe8, 0x0e, 0x00, 0x3c, 0x21, 0xfe, 0xfa, 0xca, 0xca, 0xc5, 
0xc6, 0xe6, 0x05, 0x1d, 0xa5, 0xfe, 0xe4, 0x81, 0x90, 0xe2, 0x28, 0x04, 
0xb1, 0xe8, 0xc1, 0xfb, 0x16, 0x49, 0xf1, 0x15, 0x2f, 0xc3, 0x2a, 0x1d, 
0xae, 0x0c, 0xcd, 0xeb, 0x4b, 0xc7, 0x32, 0xc4, 0x1d, 0x06, 0x4e, 0xfe, 
0xb4, 0x27, 0x14, 0x02, 0xe3, 0x1a, 0x0d, 0x39, 0xd8, 0x12, 0xab, 0xc4, 
0x10, 0x27, 0x0d, 0x2a, 0xe1, 0xe4, 0x30, 0xdb, 0xfe, 0xb5, 0x1b, 0x5a, 
0x27, 0xa7, 0xc1, 0x0c, 0x2a, 0xe3, 0xcd, 0xde, 0xcd, 0xc0, 0x12, 0xc3, 
0xd4, 0x49, 0x1b, 0x0b, 0xed, 0x0f, 0xd6, 0x0a, 0xf6, 0x01, 0xc2, 0x06, 
0x0c, 0xc7, 0x57, 0xee, 0xb9, 0xeb, 0x83, 0x5f, 0xb6, 0xa4, 0xf2, 0x0b, 
0xc7, 0xfe, 0xd1, 0xfd, 0xf2, 0x37, 0x11, 0x50, 0x1c, 0x2c, 0xe6, 0x21, 
0xa5, 0x36, 0xfc, 0xcf, 0x3c, 0x3d, 0xc8, 0xee, 0x2a, 0xf5, 0x14, 0xde, 
0x27, 0xa1, 0xdf, 0x20, 0xbd, 0xe9, 0x21, 0x00, 0xd1, 0xc9, 0x44, 0xd9, 
0xf9, 0xbc, 0x58, 0x3f, 0x4e, 0x9f, 0x2d, 0x2b, 0x31, 0xdd, 0x21, 0x6b, 
0xa7, 0xf8, 0x14, 0x0b, 0x23, 0xed, 0x51, 0x29, 0xba, 0xc6, 0x0a, 0x45, 
0xf8, 0xfe, 0x0a, 0xe7, 0xc2, 0xf4, 0xdf, 0xd0, 0x2b, 0x24, 0xff, 0x2d, 
0xf6, 0x9a, 0x3d, 0xfe, 0x2c, 0xcc, 0x7f, 0x5a, 0x34, 0xb4, 0xe1, 0x54, 
0x45, 0x1f, 0xc3, 0x14, 0x3e, 0xfb, 0xff, 0xff, 0x04, 0x00, 0x00, 0x00, 
0x80, 0x00, 0x00, 0x00, 0xa4, 0xfd, 0xff, 0xff, 0x19, 0x00, 0x00, 0x00, 
0x7d, 0xfe, 0xff, 0xff, 0x88, 0x01, 0x00, 0x00, 0xb3, 0xfe, 0xff, 0xff, 
0xd8, 0xfc, 0xff, 0xff, 0xd6, 0xff, 0xff, 0xff, 0x82, 0x00, 0x00, 0x00, 
0x35, 0xfc, 0xff, 0xff, 0xb6, 0x00, 0x00, 0x00, 0xbf, 0xff, 0xff, 0xff, 
0x6e, 0x01, 0x00, 0x00, 0x9a, 0xff, 0xff, 0xff, 0x7a, 0x03, 0x00, 0x00, 
0xe7, 0xfd, 0xff, 0xff, 0xbd, 0x01, 0x00, 0x00, 0x5d, 0x01, 0x00, 0x00, 
0x4c, 0xff, 0xff, 0xff, 0x9f, 0xff, 0xff, 0xff, 0x7c, 0xfe, 0xff, 0xff, 
0x69, 0xff, 0xff, 0xff, 0x31, 0x02, 0x00, 0x00, 0x85, 0x01, 0x00, 0x00, 
0x64, 0xff, 0xff, 0xff, 0xe1, 0xff, 0xff, 0xff, 0xb3, 0xfe, 0xff, 0xff, 
0x2b, 0xff, 0xff, 0xff, 0xcb, 0x00, 0x00, 0x00, 0x87, 0xfd, 0xff, 0xff, 
0xa9, 0xff, 0xff, 0xff, 0x00, 0x00, 0x00, 0x00, 0x0d, 0xfe, 0xff, 0xff, 
0xca, 0xfb, 0xff, 0xff, 0x04, 0x00, 0x00, 0x00, 0xe0, 0x01, 0x00, 0x00, 
0x09, 0x0e, 0xe4, 0xf8, 0xa9, 0x35, 0x02, 0x2a, 0xe0, 0x55, 0xb1, 0x30, 
0xdb, 0xce, 0xa1, 0xf1, 0xf4, 0xb6, 0x30, 0xdd, 0xe9, 0x1c, 0xec, 0xf2, 
0x12, 0x1e, 0x81, 0x13, 0x12, 0xbc, 0xd2, 0xe4, 0x31, 0x23, 0xe0, 0x1f, 
0xcd, 0x0b, 0x03, 0x21, 0xdf, 0x2e, 0x11, 0x19, 0xc4, 0x45, 0x1a, 0x1d, 
0x27, 0x09, 0xbe, 0xdf, 0xf1, 0x1f, 0x16, 0xa5, 0x9e, 0xeb, 0xb7, 0x30, 
0x26, 0xf3, 0xc5, 0xd6, 0x11, 0x11, 0x07, 0x13, 0xcc, 0xc7, 0x2e, 0xfe, 
0xec, 0x06, 0xdd, 0x24, 0xd8, 0x12, 0xe2, 0xda, 0x3a, 0xec, 0xe0, 0xda, 
0xd0, 0x36, 0x06, 0xe6, 0xb4, 0x13, 0xdd, 0x43, 0x26, 0xfc, 0xf6, 0xb6, 
0xf6, 0x13, 0xc2, 0x18, 0xe6, 0xbb, 0x34, 0x17, 0xd4, 0x33, 0x0f, 0x27, 
0xc2, 0x35, 0xe8, 0x10, 0x13, 0xd1, 0xff, 0xe7, 0xbc, 0xf8, 0xf5, 0xbf, 
0xad, 0x29, 0xde, 0xef, 0x27, 0xdb, 0xb7, 0xdf, 0xe3, 0x46, 0xe5, 0x28, 
0xbe, 0x10, 0x30, 0x34, 0x1b, 0x10, 0x12, 0x1c, 0x09, 0x14, 0xf9, 0x05, 
0xf4, 0x9f, 0xda, 0x0f, 0xf9, 0x25, 0x15, 0xaa, 0xa7, 0x30, 0xad, 0x35, 
0x1a, 0xf4, 0xd3, 0xc0, 0xd4, 0xcf, 0x35, 0x1c, 0x15, 0xf4, 0x2b, 0x00, 
0x34, 0xfb, 0x3b, 0xf4, 0x3b, 0x0f, 0xdc, 0x05, 0xcd, 0x7f, 0x17, 0xe9, 
0x39, 0x24, 0xd4, 0xbe, 0x2d, 0x1c, 0xd9, 0xc5, 0x09, 0x3b, 0xdd, 0x36, 
0x1c, 0x14, 0x30, 0xe9, 0x0d, 0xb2, 0x1e, 0xef, 0xcd, 0xd0, 0x65, 0x03, 
0x30, 0x40, 0xa9, 0x33, 0xbd, 0x3b, 0xf9, 0xae, 0x1e, 0xf2, 0x4e, 0xd5, 
0xed, 0x0c, 0x1d, 0x11, 0xbb, 0x3f, 0xf7, 0xeb, 0xc8, 0xc0, 0xe3, 0x3f, 
0x08, 0xf0, 0xc7, 0x8d, 0xef, 0x1f, 0x09, 0x18, 0x44, 0xfb, 0xe8, 0xef, 
0x05, 0x3e, 0x1b, 0xdd, 0x42, 0x00, 0x36, 0xf8, 0x29, 0xd4, 0xf7, 0xef, 
0xc8, 0x29, 0xf0, 0x1d, 0xe5, 0xb2, 0xe9, 0x44, 0x08, 0xcf, 0xd7, 0x03, 
0xdb, 0xd6, 0x53, 0xd8, 0x1d, 0xc2, 0xff, 0x23, 0x04, 0x21, 0xe6, 0x05, 
0x1b, 0x0f, 0x4b, 0xb8, 0x3d, 0xcf, 0x35, 0xad, 0xeb, 0x19, 0xf5, 0x39, 
0xbb, 0xc4, 0x48, 0x3a, 0x4b, 0xc9, 0xce, 0xa7, 0xdd, 0x15, 0x66, 0x2c, 
0x45, 0xeb, 0xcc, 0xf5, 0xb3, 0x14, 0x0f, 0xe7, 0x0d, 0x28, 0x46, 0xde, 
0x3b, 0xd7, 0xbd, 0xde, 0xf5, 0x34, 0xde, 0xdd, 0xfe, 0xd7, 0x2a, 0x1e, 
0x33, 0x00, 0xd4, 0xbe, 0xd3, 0xae, 0xde, 0x2e, 0xec, 0xeb, 0x54, 0xdf, 
0x18, 0x02, 0x07, 0x23, 0x1e, 0xcf, 0x29, 0xf7, 0x49, 0x16, 0x5c, 0x22, 
0xde, 0xfe, 0x44, 0x14, 0x2f, 0x24, 0x10, 0xb9, 0x22, 0x2f, 0x05, 0xe1, 
0xfc, 0xf1, 0xf2, 0x0c, 0xe2, 0xf9, 0xf6, 0x04, 0xef, 0xb5, 0x14, 0x1f, 
0x0f, 0xfc, 0xd8, 0x30, 0xfd, 0x28, 0x2f, 0x0c, 0x41, 0xda, 0x2f, 0x36, 
0x0b, 0xc8, 0x00, 0xc4, 0xe2, 0x43, 0x20, 0xf8, 0xec, 0xb0, 0xcf, 0xd0, 
0x16, 0xd0, 0x21, 0xf7, 0xfd, 0xf4, 0xca, 0x1b, 0x14, 0xf9, 0xcc, 0x35, 
0x31, 0x1e, 0x34, 0x13, 0x44, 0xc5, 0x06, 0x3d, 0x0e, 0xfd, 0x13, 0x17, 
0x11, 0x0b, 0xfc, 0xfd, 0x18, 0xf4, 0xe4, 0xc6, 0x01, 0xcb, 0x3a, 0xd2, 
0xcf, 0xfa, 0xcc, 0x01, 0x31, 0xdc, 0xc1, 0x0b, 0x06, 0x25, 0x28, 0x24, 
0x38, 0xfd, 0x36, 0x2f, 0x26, 0x2d, 0x1e, 0xc2, 0x11, 0x29, 0x22, 0x0e, 
0x3b, 0x22, 0xbd, 0xf4, 0xe4, 0xbe, 0x38, 0xb1, 0xd3, 0xd1, 0xec, 0x28, 
0xfd, 0x0b, 0xc1, 0x26, 0xf1, 0xc9, 0x7f, 0x23, 0x3c, 0x0c, 0x41, 0x08, 
0xb6, 0xfd, 0xff, 0xff, 0x04, 0x00, 0x00, 0x00, 0x0c, 0x00, 0x00, 0x00, 
0x37, 0x01, 0x00, 0x00, 0x11, 0x00, 0x00, 0x00, 0xa7, 0xfe, 0xff, 0xff, 
0xce, 0xfd, 0xff, 0xff, 0x04, 0x00, 0x00, 0x00, 0x04, 0x00, 0x00, 0x00, 
0xa0, 0x00, 0x00, 0x00, 0x68, 0xdc, 0xff, 0xff, 0xe2, 0xfd, 0xff, 0xff, 
0x04, 0x00, 0x00, 0x00, 0x04, 0x00, 0x00, 0x00, 0x00, 0x00, 0x00, 0x00, 
0xf2, 0xfd, 0xff, 0xff, 0x04, 0x00, 0x00, 0x00, 0x0c, 0x00, 0x00, 0x00, 
0xff, 0xff, 0xff, 0xff, 0x05, 0x00, 0x00, 0x00, 0x20, 0x00, 0x00, 0x00, 
0x0a, 0xfe, 0xff, 0xff, 0x04, 0x00, 0x00, 0x00, 0x0c, 0x00, 0x00, 0x00, 
0xff, 0xff, 0xff, 0xff, 0x0a, 0x00, 0x00, 0x00, 0x20, 0x00, 0x00, 0x00, 
0x22, 0xfe, 0xff, 0xff, 0x04, 0x00, 0x00, 0x00, 0x0c, 0x00, 0x00, 0x00, 
0xff, 0xff, 0xff, 0xff, 0x0c, 0x00, 0x00, 0x00, 0x20, 0x00, 0x00, 0x00, 
0x3a, 0xfe, 0xff, 0xff, 0x04, 0x00, 0x00, 0x00, 0x0c, 0x00, 0x00, 0x00, 
0xff, 0xff, 0xff, 0xff, 0x19, 0x00, 0x00, 0x00, 0x20, 0x00, 0x00, 0x00, 
0x52, 0xfe, 0xff, 0xff, 0x04, 0x00, 0x00, 0x00, 0x0c, 0x00, 0x00, 0x00, 
0xff, 0xff, 0xff, 0xff, 0x1d, 0x00, 0x00, 0x00, 0x10, 0x00, 0x00, 0x00, 
0x6a, 0xfe, 0xff, 0xff, 0x04, 0x00, 0x00, 0x00, 0x04, 0x00, 0x00, 0x00, 
0x01, 0x00, 0x00, 0x00, 0x7a, 0xfe, 0xff, 0xff, 0x04, 0x00, 0x00, 0x00, 
0x0c, 0x00, 0x00, 0x00, 0xff, 0xff, 0xff, 0xff, 0x3a, 0x00, 0x00, 0x00, 
0x10, 0x00, 0x00, 0x00, 0x92, 0xfe, 0xff, 0xff, 0x04, 0x00, 0x00, 0x00, 
0x04, 0x00, 0x00, 0x00, 0xfd, 0xff, 0xff, 0xff, 0x2c, 0xdd, 0xff, 0xff, 
0x30, 0xdd, 0xff, 0xff, 0x0f, 0x00, 0x00, 0x00, 0x4d, 0x4c, 0x49, 0x52, 
0x20, 0x43, 0x6f, 0x6e, 0x76, 0x65, 0x72, 0x74, 0x65, 0x64, 0x2e, 0x00, 
0x01, 0x00, 0x00, 0x00, 0x14, 0x00, 0x00, 0x00, 0x00, 0x00, 0x0e, 0x00, 
0x18, 0x00, 0x14, 0x00, 0x10, 0x00, 0x0c, 0x00, 0x08, 0x00, 0x04, 0x00, 
0x0e, 0x00, 0x00, 0x00, 0x14, 0x00, 0x00, 0x00, 0x1c, 0x00, 0x00, 0x00, 
0x88, 0x05, 0x00, 0x00, 0x8c, 0x05, 0x00, 0x00, 0x90, 0x05, 0x00, 0x00, 
0x04, 0x00, 0x00, 0x00, 0x6d, 0x61, 0x69, 0x6e, 0x00, 0x00, 0x00, 0x00, 
0x18, 0x00, 0x00, 0x00, 0x40, 0x05, 0x00, 0x00, 0xdc, 0x04, 0x00, 0x00, 
0xa4, 0x04, 0x00, 0x00, 0x68, 0x04, 0x00, 0x00, 0x14, 0x04, 0x00, 0x00, 
0xdc, 0x03, 0x00, 0x00, 0xac, 0x03, 0x00, 0x00, 0x64, 0x03, 0x00, 0x00, 
0x3c, 0x03, 0x00, 0x00, 0x0c, 0x03, 0x00, 0x00, 0xc8, 0x02, 0x00, 0x00, 
0xa0, 0x02, 0x00, 0x00, 0x70, 0x02, 0x00, 0x00, 0x28, 0x02, 0x00, 0x00, 
0x00, 0x02, 0x00, 0x00, 0xd0, 0x01, 0x00, 0x00, 0x8c, 0x01, 0x00, 0x00, 
0x64, 0x01, 0x00, 0x00, 0x28, 0x01, 0x00, 0x00, 0xd8, 0x00, 0x00, 0x00, 
0x98, 0x00, 0x00, 0x00, 0x70, 0x00, 0x00, 0x00, 0x38, 0x00, 0x00, 0x00, 
0x04, 0x00, 0x00, 0x00, 0x8e, 0xfb, 0xff, 0xff, 0x14, 0x00, 0x00, 0x00, 
0x00, 0x00, 0x00, 0x09, 0x14, 0x00, 0x00, 0x00, 0x18, 0x00, 0x00, 0x00, 
0x08, 0x00, 0x00, 0x00, 0x76, 0xff, 0xff, 0xff, 0x00, 0x00, 0x80, 0x3f, 
0x01, 0x00, 0x00, 0x00, 0x2b, 0x00, 0x00, 0x00, 0x01, 0x00, 0x00, 0x00, 
0x2a, 0x00, 0x00, 0x00, 0xbe, 0xfb, 0xff, 0xff, 0x14, 0x00, 0x00, 0x00, 
0x00, 0x00, 0x00, 0x08, 0x10, 0x00, 0x00, 0x00, 0x14, 0x00, 0x00, 0x00, 
0x07, 0x00, 0x00, 0x00, 0x30, 0xde, 0xff, 0xff, 0x01, 0x00, 0x00, 0x00, 
0x2a, 0x00, 0x00, 0x00, 0x03, 0x00, 0x00, 0x00, 0x29, 0x00, 0x00, 0x00, 
0x0d, 0x00, 0x00, 0x00, 0x0c, 0x00, 0x00, 0x00, 0x22, 0xfc, 0xff, 0xff, 
0x0c, 0x00, 0x00, 0x00, 0x10, 0x00, 0x00, 0x00, 0x02, 0x00, 0x00, 0x00, 
0x01, 0x00, 0x00, 0x00, 0x29, 0x00, 0x00, 0x00, 0x02, 0x00, 0x00, 0x00, 
0x24, 0x00, 0x00, 0x00, 0x28, 0x00, 0x00, 0x00, 0xd2, 0xfc, 0xff, 0xff, 
0x1c, 0x00, 0x00, 0x00, 0x00, 0x00, 0x00, 0x3b, 0x1c, 0x00, 0x00, 0x00, 
0x20, 0x00, 0x00, 0x00, 0x06, 0x00, 0x00, 0x00, 0x00, 0x00, 0x06, 0x00, 
0x08, 0x00, 0x04, 0x00, 0x06, 0x00, 0x00, 0x00, 0x02, 0x00, 0x00, 0x00, 
0x01, 0x00, 0x00, 0x00, 0x28, 0x00, 0x00, 0x00, 0x02, 0x00, 0x00, 0x00, 
0x27, 0x00, 0x00, 0x00, 0x0b, 0x00, 0x00, 0x00, 0x0e, 0xfd, 0xff, 0xff, 
0x24, 0x00, 0x00, 0x00, 0x00, 0x00, 0x00, 0x20, 0x24, 0x00, 0x00, 0x00, 
0x28, 0x00, 0x00, 0x00, 0x05, 0x00, 0x00, 0x00, 0x00, 0x00, 0x0e, 0x00, 
0x08, 0x00, 0x00, 0x00, 0x00, 0x00, 0x00, 0x00, 0x00, 0x00, 0x04, 0x00, 
0x0e, 0x00, 0x00, 0x00, 0x01, 0x00, 0x00, 0x00, 0x01, 0x00, 0x00, 0x00, 
0x27, 0x00, 0x00, 0x00, 0x04, 0x00, 0x00, 0x00, 0x26, 0x00, 0x00, 0x00, 
0x09, 0x00, 0x00, 0x00, 0x0a, 0x00, 0x00, 0x00, 0x0a, 0x00, 0x00, 0x00, 
0x5a, 0xfd, 0xff, 0xff, 0x1c, 0x00, 0x00, 0x00, 0x00, 0x00, 0x00, 0x37, 
0x1c, 0x00, 0x00, 0x00, 0x20, 0x00, 0x00, 0x00, 0x04, 0x00, 0x00, 0x00, 
0x00, 0x00, 0x06, 0x00, 0x08, 0x00, 0x07, 0x00, 0x06, 0x00, 0x00, 0x00, 
0x00, 0x00, 0x00, 0x02, 0x01, 0x00, 0x00, 0x00, 0x26, 0x00, 0x00, 0x00, 
0x01, 0x00, 0x00, 0x00, 0x25, 0x00, 0x00, 0x00, 0x06, 0xfd, 0xff, 0xff, 
0x0c, 0x00, 0x00, 0x00, 0x10, 0x00, 0x00, 0x00, 0x02, 0x00, 0x00, 0x00, 
0x01, 0x00, 0x00, 0x00, 0x25, 0x00, 0x00, 0x00, 0x02, 0x00, 0x00, 0x00, 
0x24, 0x00, 0x00, 0x00, 0x08, 0x00, 0x00, 0x00, 0xfa, 0xfc, 0xff, 0xff, 
0x14, 0x00, 0x00, 0x00, 0x00, 0x00, 0x00, 0x05, 0x24, 0x00, 0x00, 0x00, 
0x28, 0x00, 0x00, 0x00, 0x03, 0x00, 0x00, 0x00, 0xa6, 0xfd, 0xff, 0xff, 
0x01, 0x00, 0x00, 0x00, 0x02, 0x00, 0x00, 0x00, 0x01, 0x00, 0x00, 0x00, 
0x02, 0x00, 0x00, 0x00, 0x00, 0x00, 0x00, 0x01, 0x01, 0x00, 0x00, 0x00, 
0x24, 0x00, 0x00, 0x00, 0x01, 0x00, 0x00, 0x00, 0x23, 0x00, 0x00, 0x00, 
0xda, 0xfc, 0xff, 0xff, 0x10, 0x00, 0x00, 0x00, 0x00, 0x00, 0x00, 0x34, 
0x0c, 0x00, 0x00, 0x00, 0x10, 0x00, 0x00, 0x00, 0xa8, 0xdf, 0xff, 0xff, 
0x01, 0x00, 0x00, 0x00, 0x23, 0x00, 0x00, 0x00, 0x02, 0x00, 0x00, 0x00, 
0x22, 0x00, 0x00, 0x00, 0x03, 0x00, 0x00, 0x00, 0x96, 0xfd, 0xff, 0xff, 
0x0c, 0x00, 0x00, 0x00, 0x10, 0x00, 0x00, 0x00, 0x02, 0x00, 0x00, 0x00, 
0x01, 0x00, 0x00, 0x00, 0x22, 0x00, 0x00, 0x00, 0x02, 0x00, 0x00, 0x00, 
0x21, 0x00, 0x00, 0x00, 0x07, 0x00, 0x00, 0x00, 0x8a, 0xfd, 0xff, 0xff, 
0x14, 0x00, 0x00, 0x00, 0x00, 0x00, 0x00, 0x01, 0x20, 0x00, 0x00, 0x00, 
0x24, 0x00, 0x00, 0x00, 0x01, 0x00, 0x00, 0x00, 0x7c, 0xfd, 0xff, 0xff, 
0x00, 0x00, 0x00, 0x01, 0x01, 0x00, 0x00, 0x00, 0x01, 0x00, 0x00, 0x00, 
0x00, 0x00, 0x00, 0x01, 0x01, 0x00, 0x00, 0x00, 0x21, 0x00, 0x00, 0x00, 
0x03, 0x00, 0x00, 0x00, 0x20, 0x00, 0x00, 0x00, 0x0f, 0x00, 0x00, 0x00, 
0x0e, 0x00, 0x00, 0x00, 0x6e, 0xfd, 0xff, 0xff, 0x10, 0x00, 0x00, 0x00, 
0x00, 0x00, 0x00, 0x34, 0x0c, 0x00, 0x00, 0x00, 0x10, 0x00, 0x00, 0x00, 
0x3c, 0xe0, 0xff, 0xff, 0x01, 0x00, 0x00, 0x00, 0x20, 0x00, 0x00, 0x00, 
0x02, 0x00, 0x00, 0x00, 0x1f, 0x00, 0x00, 0x00, 0x01, 0x00, 0x00, 0x00, 
0x2a, 0xfe, 0xff, 0xff, 0x0c, 0x00, 0x00, 0x00, 0x10, 0x00, 0x00, 0x00, 
0x02, 0x00, 0x00, 0x00, 0x01, 0x00, 0x00, 0x00, 0x1f, 0x00, 0x00, 0x00, 
0x02, 0x00, 0x00, 0x00, 0x1e, 0x00, 0x00, 0x00, 0x06, 0x00, 0x00, 0x00, 
0x1e, 0xfe, 0xff, 0xff, 0x14, 0x00, 0x00, 0x00, 0x00, 0x00, 0x00, 0x05, 
0x24, 0x00, 0x00, 0x00, 0x28, 0x00, 0x00, 0x00, 0x03, 0x00, 0x00, 0x00, 
0xca, 0xfe, 0xff, 0xff, 0x01, 0x00, 0x00, 0x00, 0x02, 0x00, 0x00, 0x00, 
0x01, 0x00, 0x00, 0x00, 0x02, 0x00, 0x00, 0x00, 0x00, 0x00, 0x00, 0x01, 
0x01, 0x00, 0x00, 0x00, 0x1e, 0x00, 0x00, 0x00, 0x01, 0x00, 0x00, 0x00, 
0x1d, 0x00, 0x00, 0x00, 0xfe, 0xfd, 0xff, 0xff, 0x10, 0x00, 0x00, 0x00, 
0x00, 0x00, 0x00, 0x34, 0x0c, 0x00, 0x00, 0x00, 0x10, 0x00, 0x00, 0x00, 
0xcc, 0xe0, 0xff, 0xff, 0x01, 0x00, 0x00, 0x00, 0x1d, 0x00, 0x00, 0x00, 
0x02, 0x00, 0x00, 0x00, 0x1c, 0x00, 0x00, 0x00, 0x03, 0x00, 0x00, 0x00, 
0xba, 0xfe, 0xff, 0xff, 0x0c, 0x00, 0x00, 0x00, 0x10, 0x00, 0x00, 0x00, 
0x02, 0x00, 0x00, 0x00, 0x01, 0x00, 0x00, 0x00, 0x1c, 0x00, 0x00, 0x00, 
0x02, 0x00, 0x00, 0x00, 0x1b, 0x00, 0x00, 0x00, 0x05, 0x00, 0x00, 0x00, 
0xae, 0xfe, 0xff, 0xff, 0x14, 0x00, 0x00, 0x00, 0x00, 0x00, 0x00, 0x01, 
0x20, 0x00, 0x00, 0x00, 0x24, 0x00, 0x00, 0x00, 0x01, 0x00, 0x00, 0x00, 
0xa0, 0xfe, 0xff, 0xff, 0x00, 0x00, 0x00, 0x01, 0x01, 0x00, 0x00, 0x00, 
0x01, 0x00, 0x00, 0x00, 0x00, 0x00, 0x00, 0x01, 0x01, 0x00, 0x00, 0x00, 
0x1b, 0x00, 0x00, 0x00, 0x03, 0x00, 0x00, 0x00, 0x1a, 0x00, 0x00, 0x00, 
0x11, 0x00, 0x00, 0x00, 0x10, 0x00, 0x00, 0x00, 0x92, 0xfe, 0xff, 0xff, 
0x10, 0x00, 0x00, 0x00, 0x00, 0x00, 0x00, 0x34, 0x0c, 0x00, 0x00, 0x00, 
0x10, 0x00, 0x00, 0x00, 0x60, 0xe1, 0xff, 0xff, 0x01, 0x00, 0x00, 0x00, 
0x1a, 0x00, 0x00, 0x00, 0x02, 0x00, 0x00, 0x00, 0x19, 0x00, 0x00, 0x00, 
0x01, 0x00, 0x00, 0x00, 0x4e, 0xff, 0xff, 0xff, 0x0c, 0x00, 0x00, 0x00, 
0x10, 0x00, 0x00, 0x00, 0x02, 0x00, 0x00, 0x00, 0x01, 0x00, 0x00, 0x00, 
0x19, 0x00, 0x00, 0x00, 0x02, 0x00, 0x00, 0x00, 0x18, 0x00, 0x00, 0x00, 
0x04, 0x00, 0x00, 0x00, 0x00, 0x00, 0x0e, 0x00, 0x1a, 0x00, 0x14, 0x00, 
0x10, 0x00, 0x0c, 0x00, 0x0b, 0x00, 0x04, 0x00, 0x0e, 0x00, 0x00, 0x00, 
0x24, 0x00, 0x00, 0x00, 0x00, 0x00, 0x00, 0x05, 0x34, 0x00, 0x00, 0x00, 
0x38, 0x00, 0x00, 0x00, 0x03, 0x00, 0x00, 0x00, 0x00, 0x00, 0x0e, 0x00, 
0x18, 0x00, 0x17, 0x00, 0x10, 0x00, 0x0c, 0x00, 0x08, 0x00, 0x04, 0x00, 
0x0e, 0x00, 0x00, 0x00, 0x01, 0x00, 0x00, 0x00, 0x02, 0x00, 0x00, 0x00, 
0x01, 0x00, 0x00, 0x00, 0x02, 0x00, 0x00, 0x00, 0x00, 0x00, 0x00, 0x01, 
0x01, 0x00, 0x00, 0x00, 0x18, 0x00, 0x00, 0x00, 0x01, 0x00, 0x00, 0x00, 
0x17, 0x00, 0x00, 0x00, 0x42, 0xff, 0xff, 0xff, 0x10, 0x00, 0x00, 0x00, 
0x00, 0x00, 0x00, 0x34, 0x0c, 0x00, 0x00, 0x00, 0x10, 0x00, 0x00, 0x00, 
0x10, 0xe2, 0xff, 0xff, 0x01, 0x00, 0x00, 0x00, 0x17, 0x00, 0x00, 0x00, 
0x02, 0x00, 0x00, 0x00, 0x16, 0x00, 0x00, 0x00, 0x03, 0x00, 0x00, 0x00, 
0x00, 0x00, 0x0a, 0x00, 0x10, 0x00, 0x0c, 0x00, 0x08, 0x00, 0x04, 0x00, 
0x0a, 0x00, 0x00, 0x00, 0x0c, 0x00, 0x00, 0x00, 0x10, 0x00, 0x00, 0x00, 
0x02, 0x00, 0x00, 0x00, 0x01, 0x00, 0x00, 0x00, 0x16, 0x00, 0x00, 0x00, 
0x02, 0x00, 0x00, 0x00, 0x15, 0x00, 0x00, 0x00, 0x02, 0x00, 0x00, 0x00, 
0x00, 0x00, 0x0e, 0x00, 0x18, 0x00, 0x14, 0x00, 0x10, 0x00, 0x0c, 0x00, 
0x0b, 0x00, 0x04, 0x00, 0x0e, 0x00, 0x00, 0x00, 0x20, 0x00, 0x00, 0x00, 
0x00, 0x00, 0x00, 0x01, 0x2c, 0x00, 0x00, 0x00, 0x30, 0x00, 0x00, 0x00, 
0x01, 0x00, 0x00, 0x00, 0x0c, 0x00, 0x14, 0x00, 0x13, 0x00, 0x0c, 0x00, 
0x08, 0x00, 0x07, 0x00, 0x0c, 0x00, 0x00, 0x00, 0x00, 0x00, 0x00, 0x01, 
0x01, 0x00, 0x00, 0x00, 0x01, 0x00, 0x00, 0x00, 0x00, 0x00, 0x00, 0x01, 
0x01, 0x00, 0x00, 0x00, 0x15, 0x00, 0x00, 0x00, 0x03, 0x00, 0x00, 0x00, 
0x14, 0x00, 0x00, 0x00, 0x13, 0x00, 0x00, 0x00, 0x12, 0x00, 0x00, 0x00, 
0x00, 0x00, 0x0e, 0x00, 0x14, 0x00, 0x00, 0x00, 0x10, 0x00, 0x0c, 0x00, 
0x0b, 0x00, 0x04, 0x00, 0x0e, 0x00, 0x00, 0x00, 0x10, 0x00, 0x00, 0x00, 
0x00, 0x00, 0x00, 0x34, 0x0c, 0x00, 0x00, 0x00, 0x10, 0x00, 0x00, 0x00, 
0xdc, 0xe2, 0xff, 0xff, 0x01, 0x00, 0x00, 0x00, 0x14, 0x00, 0x00, 0x00, 
0x02, 0x00, 0x00, 0x00, 0x00, 0x00, 0x00, 0x00, 0x01, 0x00, 0x00, 0x00, 
0x01, 0x00, 0x00, 0x00, 0x2b, 0x00, 0x00, 0x00, 0x01, 0x00, 0x00, 0x00, 
0x00, 0x00, 0x00, 0x00, 0x2c, 0x00, 0x00, 0x00, 0x30, 0x1d, 0x00, 0x00, 
0xd8, 0x1c, 0x00, 0x00, 0x80, 0x1c, 0x00, 0x00, 0x44, 0x1c, 0x00, 0x00, 
0x04, 0x1c, 0x00, 0x00, 0xc4, 0x1b, 0x00, 0x00, 0x84, 0x1b, 0x00, 0x00, 
0x44, 0x1b, 0x00, 0x00, 0x04, 0x1b, 0x00, 0x00, 0xc4, 0x1a, 0x00, 0x00, 
0x84, 0x1a, 0x00, 0x00, 0x44, 0x1a, 0x00, 0x00, 0xc8, 0x19, 0x00, 0x00, 
0x4c, 0x19, 0x00, 0x00, 0x78, 0x17, 0x00, 0x00, 0x94, 0x15, 0x00, 0x00, 
0xc0, 0x13, 0x00, 0x00, 0xdc, 0x11, 0x00, 0x00, 0xc8, 0x10, 0x00, 0x00, 
0xa4, 0x0f, 0x00, 0x00, 0x00, 0x0f, 0x00, 0x00, 0x04, 0x0e, 0x00, 0x00, 
0x34, 0x0d, 0x00, 0x00, 0x8c, 0x0c, 0x00, 0x00, 0xf0, 0x0b, 0x00, 0x00, 
0x58, 0x0b, 0x00, 0x00, 0xb8, 0x0a, 0x00, 0x00, 0xb4, 0x09, 0x00, 0x00, 
0xdc, 0x08, 0x00, 0x00, 0x34, 0x08, 0x00, 0x00, 0x98, 0x07, 0x00, 0x00, 
0xf8, 0x06, 0x00, 0x00, 0x58, 0x06, 0x00, 0x00, 0x54, 0x05, 0x00, 0x00, 
0x7c, 0x04, 0x00, 0x00, 0xd4, 0x03, 0x00, 0x00, 0x38, 0x03, 0x00, 0x00, 
0x98, 0x02, 0x00, 0x00, 0x48, 0x02, 0x00, 0x00, 0xf4, 0x01, 0x00, 0x00, 
0x9c, 0x01, 0x00, 0x00, 0x1c, 0x01, 0x00, 0x00, 0x80, 0x00, 0x00, 0x00, 
0x04, 0x00, 0x00, 0x00, 0x96, 0xe3, 0xff, 0xff, 0x00, 0x00, 0x00, 0x01, 
0x18, 0x00, 0x00, 0x00, 0x20, 0x00, 0x00, 0x00, 0x3c, 0x00, 0x00, 0x00, 
0x2c, 0x00, 0x00, 0x00, 0x00, 0x00, 0x00, 0x09, 0x50, 0x00, 0x00, 0x00, 
0x02, 0x00, 0x00, 0x00, 0xff, 0xff, 0xff, 0xff, 0x03, 0x00, 0x00, 0x00, 
0x7c, 0xe3, 0xff, 0xff, 0x08, 0x00, 0x00, 0x00, 0x10, 0x00, 0x00, 0x00, 
0x01, 0x00, 0x00, 0x00, 0x80, 0xff, 0xff, 0xff, 0xff, 0xff, 0xff, 0xff, 
0x01, 0x00, 0x00, 0x00, 0x00, 0x00, 0x80, 0x3b, 0x1b, 0x00, 0x00, 0x00, 
0x53, 0x74, 0x61, 0x74, 0x65, 0x66, 0x75, 0x6c, 0x50, 0x61, 0x72, 0x74, 
0x69, 0x74, 0x69, 0x6f, 0x6e, 0x65, 0x64, 0x43, 0x61, 0x6c, 0x6c, 0x5f, 
0x31, 0x3a, 0x30, 0x00, 0x02, 0x00, 0x00, 0x00, 0x01, 0x00, 0x00, 0x00, 
0x03, 0x00, 0x00, 0x00, 0x0e, 0xe4, 0xff, 0xff, 0x00, 0x00, 0x00, 0x01, 
0x18, 0x00, 0x00, 0x00, 0x20, 0x00, 0x00, 0x00, 0x3c, 0x00, 0x00, 0x00, 
0x2b, 0x00, 0x00, 0x00, 0x00, 0x00, 0x00, 0x09, 0x70, 0x00, 0x00, 0x00, 
0x02, 0x00, 0x00, 0x00, 0xff, 0xff, 0xff, 0xff, 0x03, 0x00, 0x00, 0x00, 
0xf4, 0xe3, 0xff, 0xff, 0x08, 0x00, 0x00, 0x00, 0x10, 0x00, 0x00, 0x00, 
0x01, 0x00, 0x00, 0x00, 0xf6, 0xff, 0xff, 0xff, 0xff, 0xff, 0xff, 0xff, 
0x01, 0x00, 0x00, 0x00, 0xfe, 0x0f, 0x5f, 0x3e, 0x38, 0x00, 0x00, 0x00, 
0x73, 0x65, 0x71, 0x75, 0x65, 0x6e, 0x74, 0x69, 0x61, 0x6c, 0x5f, 0x31, 
0x2f, 0x64, 0x65, 0x6e, 0x73, 0x65, 0x5f, 0x31, 0x2f, 0x4d, 0x61, 0x74, 
0x4d, 0x75, 0x6c, 0x3b, 0x73, 0x65, 0x71, 0x75, 0x65, 0x6e, 0x74, 0x69, 
0x61, 0x6c, 0x5f, 0x31, 0x2f, 0x64, 0x65, 0x6e, 0x73, 0x65, 0x5f, 0x31, 
0x2f, 0x42, 0x69, 0x61, 0x73, 0x41, 0x64, 0x64, 0x00, 0x00, 0x00, 0x00, 
0x02, 0x00, 0x00, 0x00, 0x01, 0x00, 0x00, 0x00, 0x03, 0x00, 0x00, 0x00, 
0xa6, 0xe4, 0xff, 0xff, 0x00, 0x00, 0x00, 0x01, 0x18, 0x00, 0x00, 0x00, 
0x20, 0x00, 0x00, 0x00, 0x3c, 0x00, 0x00, 0x00, 0x2a, 0x00, 0x00, 0x00, 
0x00, 0x00, 0x00, 0x09, 0x54, 0x00, 0x00, 0x00, 0x02, 0x00, 0x00, 0x00, 
0xff, 0xff, 0xff, 0xff, 0xa0, 0x00, 0x00, 0x00, 0x8c, 0xe4, 0xff, 0xff, 
0x08, 0x00, 0x00, 0x00, 0x10, 0x00, 0x00, 0x00, 0x01, 0x00, 0x00, 0x00, 
0x80, 0xff, 0xff, 0xff, 0xff, 0xff, 0xff, 0xff, 0x01, 0x00, 0x00, 0x00, 
0x25, 0x23, 0x68, 0x3d, 0x1e, 0x00, 0x00, 0x00, 0x73, 0x65, 0x71, 0x75, 
0x65, 0x6e, 0x74, 0x69, 0x61, 0x6c, 0x5f, 0x31, 0x2f, 0x66, 0x6c, 0x61, 
0x74, 0x74, 0x65, 0x6e, 0x5f, 0x31, 0x2f, 0x52, 0x65, 0x73, 0x68, 0x61, 
0x70, 0x65, 0x00, 0x00, 0x02, 0x00, 0x00, 0x00, 0x01, 0x00, 0x00, 0x00, 
0xa0, 0x00, 0x00, 0x00, 0x76, 0xe5, 0xff, 0xff, 0x00, 0x00, 0x00, 0x01, 
0x14, 0x00, 0x00, 0x00, 0x14, 0x00, 0x00, 0x00, 0x29, 0x00, 0x00, 0x00, 
0x00, 0x00, 0x00, 0x02, 0x34, 0x00, 0x00, 0x00, 0x60, 0xe5, 0xff, 0xff, 
0x24, 0x00, 0x00, 0x00, 0x73, 0x65, 0x71, 0x75, 0x65, 0x6e, 0x74, 0x69, 
0x61, 0x6c, 0x5f, 0x31, 0x2f, 0x66, 0x6c, 0x61, 0x74, 0x74, 0x65, 0x6e, 
0x5f, 0x31, 0x2f, 0x52, 0x65, 0x73, 0x68, 0x61, 0x70, 0x65, 0x2f, 0x73, 
0x68, 0x61, 0x70, 0x65, 0x00, 0x00, 0x00, 0x00, 0x01, 0x00, 0x00, 0x00, 
0x02, 0x00, 0x00, 0x00, 0xca, 0xe5, 0xff, 0xff, 0x00, 0x00, 0x00, 0x01, 
0x14, 0x00, 0x00, 0x00, 0x14, 0x00, 0x00, 0x00, 0x28, 0x00, 0x00, 0x00, 
0x00, 0x00, 0x00, 0x02, 0x34, 0x00, 0x00, 0x00, 0xb4, 0xe5, 0xff, 0xff, 
0x24, 0x00, 0x00, 0x00, 0x73, 0x65, 0x71, 0x75, 0x65, 0x6e, 0x74, 0x69, 
0x61, 0x6c, 0x5f, 0x31, 0x2f, 0x66, 0x6c, 0x61, 0x74, 0x74, 0x65, 0x6e, 
0x5f, 0x31, 0x2f, 0x73, 0x74, 0x72, 0x69, 0x64, 0x65, 0x64, 0x5f, 0x73, 
0x6c, 0x69, 0x63, 0x65, 0x00, 0x00, 0x00, 0x00, 0x00, 0x00, 0x00, 0x00, 
0x1a, 0xe6, 0xff, 0xff, 0x00, 0x00, 0x00, 0x01, 0x14, 0x00, 0x00, 0x00, 
0x14, 0x00, 0x00, 0x00, 0x27, 0x00, 0x00, 0x00, 0x00, 0x00, 0x00, 0x02, 
0x2c, 0x00, 0x00, 0x00, 0x04, 0xe6, 0xff, 0xff, 0x1c, 0x00, 0x00, 0x00, 
0x73, 0x65, 0x71, 0x75, 0x65, 0x6e, 0x74, 0x69, 0x61, 0x6c, 0x5f, 0x31, 
0x2f, 0x66, 0x6c, 0x61, 0x74, 0x74, 0x65, 0x6e, 0x5f, 0x31, 0x2f, 0x53, 
0x68, 0x61, 0x70, 0x65, 0x00, 0x00, 0x00, 0x00, 0x01, 0x00, 0x00, 0x00, 
0x03, 0x00, 0x00, 0x00, 0x12, 0xe6, 0xff, 0xff, 0x00, 0x00, 0x00, 0x01, 
0x18, 0x00, 0x00, 0x00, 0x24, 0x00, 0x00, 0x00, 0x44, 0x00, 0x00, 0x00, 
0x26, 0x00, 0x00, 0x00, 0x00, 0x00, 0x00, 0x09, 0x70, 0x00, 0x00, 0x00, 
0x03, 0x00, 0x00, 0x00, 0xff, 0xff, 0xff, 0xff, 0x05, 0x00, 0x00, 0x00, 
0x20, 0x00, 0x00, 0x00, 0xfc, 0xe5, 0xff, 0xff, 0x08, 0x00, 0x00, 0x00, 
0x14, 0x00, 0x00, 0x00, 0x01, 0x00, 0x00, 0x00, 0x80, 0xff, 0xff, 0xff, 
0xff, 0xff, 0xff, 0xff, 0x00, 0x00, 0x00, 0x00, 0x01, 0x00, 0x00, 0x00, 
0x25, 0x23, 0x68, 0x3d, 0x30, 0x00, 0x00, 0x00, 0x73, 0x65, 0x71, 0x75, 
0x65, 0x6e, 0x74, 0x69, 0x61, 0x6c, 0x5f, 0x31, 0x2f, 0x6d, 0x61, 0x78, 
0x5f, 0x70, 0x6f, 0x6f, 0x6c, 0x69, 0x6e, 0x67, 0x31, 0x64, 0x5f, 0x32, 
0x5f, 0x31, 0x2f, 0x4d, 0x61, 0x78, 0x50, 0x6f, 0x6f, 0x6c, 0x31, 0x64, 
0x2f, 0x53, 0x71, 0x75, 0x65, 0x65, 0x7a, 0x65, 0x00, 0x00, 0x00, 0x00, 
0x03, 0x00, 0x00, 0x00, 0x01, 0x00, 0x00, 0x00, 0x05, 0x00, 0x00, 0x00, 
0x20, 0x00, 0x00, 0x00, 0xae, 0xe6, 0xff, 0xff, 0x00, 0x00, 0x00, 0x01, 
0x18, 0x00, 0x00, 0x00, 0x28, 0x00, 0x00, 0x00, 0x44, 0x00, 0x00, 0x00, 
0x25, 0x00, 0x00, 0x00, 0x00, 0x00, 0x00, 0x09, 0x68, 0x00, 0x00, 0x00, 
0x04, 0x00, 0x00, 0x00, 0xff, 0xff, 0xff, 0xff, 0x01, 0x00, 0x00, 0x00, 
0x05, 0x00, 0x00, 0x00, 0x20, 0x00, 0x00, 0x00, 0x9c, 0xe6, 0xff, 0xff, 
0x08, 0x00, 0x00, 0x00, 0x10, 0x00, 0x00, 0x00, 0x01, 0x00, 0x00, 0x00, 
0x80, 0xff, 0xff, 0xff, 0xff, 0xff, 0xff, 0xff, 0x01, 0x00, 0x00, 0x00, 
0x25, 0x23, 0x68, 0x3d, 0x28, 0x00, 0x00, 0x00, 0x73, 0x65, 0x71, 0x75, 
0x65, 0x6e, 0x74, 0x69, 0x61, 0x6c, 0x5f, 0x31, 0x2f, 0x6d, 0x61, 0x78, 
0x5f, 0x70, 0x6f, 0x6f, 0x6c, 0x69, 0x6e, 0x67, 0x31, 0x64, 0x5f, 0x32, 
0x5f, 0x31, 0x2f, 0x4d, 0x61, 0x78, 0x50, 0x6f, 0x6f, 0x6c, 0x31, 0x64, 
0x00, 0x00, 0x00, 0x00, 0x04, 0x00, 0x00, 0x00, 0x01, 0x00, 0x00, 0x00, 
0x01, 0x00, 0x00, 0x00, 0x05, 0x00, 0x00, 0x00, 0x20, 0x00, 0x00, 0x00, 
0x46, 0xe7, 0xff, 0xff, 0x00, 0x00, 0x00, 0x01, 0x18, 0x00, 0x00, 0x00, 
0x28, 0x00, 0x00, 0x00, 0x48, 0x00, 0x00, 0x00, 0x24, 0x00, 0x00, 0x00, 
0x00, 0x00, 0x00, 0x09, 0x74, 0x00, 0x00, 0x00, 0x04, 0x00, 0x00, 0x00, 
0xff, 0xff, 0xff, 0xff, 0x01, 0x00, 0x00, 0x00, 0x0a, 0x00, 0x00, 0x00, 
0x20, 0x00, 0x00, 0x00, 0x34, 0xe7, 0xff, 0xff, 0x08, 0x00, 0x00, 0x00, 
0x14, 0x00, 0x00, 0x00, 0x01, 0x00, 0x00, 0x00, 0x80, 0xff, 0xff, 0xff, 
0xff, 0xff, 0xff, 0xff, 0x00, 0x00, 0x00, 0x00, 0x01, 0x00, 0x00, 0x00, 
0x25, 0x23, 0x68, 0x3d, 0x33, 0x00, 0x00, 0x00, 0x73, 0x65, 0x71, 0x75, 
0x65, 0x6e, 0x74, 0x69, 0x61, 0x6c, 0x5f, 0x31, 0x2f, 0x6d, 0x61, 0x78, 
0x5f, 0x70, 0x6f, 0x6f, 0x6c, 0x69, 0x6e, 0x67, 0x31, 0x64, 0x5f, 0x32, 
0x5f, 0x31, 0x2f, 0x4d, 0x61, 0x78, 0x50, 0x6f, 0x6f, 0x6c, 0x31, 0x64, 
0x2f, 0x45, 0x78, 0x70, 0x61, 0x6e, 0x64, 0x44, 0x69, 0x6d, 0x73, 0x00, 
0x04, 0x00, 0x00, 0x00, 0x01, 0x00, 0x00, 0x00, 0x01, 0x00, 0x00, 0x00, 
0x0a, 0x00, 0x00, 0x00, 0x20, 0x00, 0x00, 0x00, 0xea, 0xe7, 0xff, 0xff, 
0x00, 0x00, 0x00, 0x01, 0x18, 0x00, 0x00, 0x00, 0x24, 0x00, 0x00, 0x00, 
0x44, 0x00, 0x00, 0x00, 0x23, 0x00, 0x00, 0x00, 0x00, 0x00, 0x00, 0x09, 
0xa8, 0x00, 0x00, 0x00, 0x03, 0x00, 0x00, 0x00, 0xff, 0xff, 0xff, 0xff, 
0x0a, 0x00, 0x00, 0x00, 0x20, 0x00, 0x00, 0x00, 0xd4, 0xe7, 0xff, 0xff, 
0x08, 0x00, 0x00, 0x00, 0x14, 0x00, 0x00, 0x00, 0x01, 0x00, 0x00, 0x00, 
0x80, 0xff, 0xff, 0xff, 0xff, 0xff, 0xff, 0xff, 0x00, 0x00, 0x00, 0x00, 
0x01, 0x00, 0x00, 0x00, 0x25, 0x23, 0x68, 0x3d, 0x69, 0x00, 0x00, 0x00, 
0x73, 0x65, 0x71, 0x75, 0x65, 0x6e, 0x74, 0x69, 0x61, 0x6c, 0x5f, 0x31, 
0x2f, 0x63, 0x6f, 0x6e, 0x76, 0x31, 0x64, 0x5f, 0x32, 0x5f, 0x31, 0x2f, 
0x52, 0x65, 0x6c, 0x75, 0x3b, 0x73, 0x65, 0x71, 0x75, 0x65, 0x6e, 0x74, 
0x69, 0x61, 0x6c, 0x5f, 0x31, 0x2f, 0x63, 0x6f, 0x6e, 0x76, 0x31, 0x64, 
0x5f, 0x32, 0x5f, 0x31, 0x2f, 0x42, 0x69, 0x61, 0x73, 0x41, 0x64, 0x64, 
0x3b, 0x73, 0x65, 0x71, 0x75, 0x65, 0x6e, 0x74, 0x69, 0x61, 0x6c, 0x5f, 
0x31, 0x2f, 0x63, 0x6f, 0x6e, 0x76, 0x31, 0x64, 0x5f, 0x32, 0x5f, 0x31, 
0x2f, 0x63, 0x6f, 0x6e, 0x76, 0x6f, 0x6c, 0x75, 0x74, 0x69, 0x6f, 0x6e, 
0x2f, 0x53, 0x71, 0x75, 0x65, 0x65, 0x7a, 0x65, 0x3b, 0x00, 0x00, 0x00, 
0x03, 0x00, 0x00, 0x00, 0x01, 0x00, 0x00, 0x00, 0x0a, 0x00, 0x00, 0x00, 
0x20, 0x00, 0x00, 0x00, 0xbe, 0xe8, 0xff, 0xff, 0x00, 0x00, 0x00, 0x01, 
0x18, 0x00, 0x00, 0x00, 0x28, 0x00, 0x00, 0x00, 0x48, 0x00, 0x00, 0x00, 
0x22, 0x00, 0x00, 0x00, 0x00, 0x00, 0x00, 0x09, 0xd0, 0x00, 0x00, 0x00, 
0x04, 0x00, 0x00, 0x00, 0xff, 0xff, 0xff, 0xff, 0x01, 0x00, 0x00, 0x00, 
0x0a, 0x00, 0x00, 0x00, 0x20, 0x00, 0x00, 0x00, 0xac, 0xe8, 0xff, 0xff, 
0x08, 0x00, 0x00, 0x00, 0x14, 0x00, 0x00, 0x00, 0x01, 0x00, 0x00, 0x00, 
0x80, 0xff, 0xff, 0xff, 0xff, 0xff, 0xff, 0xff, 0x00, 0x00, 0x00, 0x00, 
0x01, 0x00, 0x00, 0x00, 0x25, 0x23, 0x68, 0x3d, 0x8d, 0x00, 0x00, 0x00, 
0x73, 0x65, 0x71, 0x75, 0x65, 0x6e, 0x74, 0x69, 0x61, 0x6c, 0x5f, 0x31, 
0x2f, 0x63, 0x6f, 0x6e, 0x76, 0x31, 0x64, 0x5f, 0x32, 0x5f, 0x31, 0x2f, 
0x52, 0x65, 0x6c, 0x75, 0x3b, 0x73, 0x65, 0x71, 0x75, 0x65, 0x6e, 0x74, 
0x69, 0x61, 0x6c, 0x5f, 0x31, 0x2f, 0x63, 0x6f, 0x6e, 0x76, 0x31, 0x64, 
0x5f, 0x32, 0x5f, 0x31, 0x2f, 0x42, 0x69, 0x61, 0x73, 0x41, 0x64, 0x64, 
0x3b, 0x73, 0x65, 0x71, 0x75, 0x65, 0x6e, 0x74, 0x69, 0x61, 0x6c, 0x5f, 
0x31, 0x2f, 0x63, 0x6f, 0x6e, 0x76, 0x31, 0x64, 0x5f, 0x32, 0x5f, 0x31, 
0x2f, 0x63, 0x6f, 0x6e, 0x76, 0x6f, 0x6c, 0x75, 0x74, 0x69, 0x6f, 0x6e, 
0x2f, 0x53, 0x71, 0x75, 0x65, 0x65, 0x7a, 0x65, 0x3b, 0x3b, 0x73, 0x65, 
0x71, 0x75, 0x65, 0x6e, 0x74, 0x69, 0x61, 0x6c, 0x5f, 0x31, 0x2f, 0x63, 
0x6f, 0x6e, 0x76, 0x31, 0x64, 0x5f, 0x32, 0x5f, 0x31, 0x2f, 0x63, 0x6f, 
0x6e, 0x76, 0x6f, 0x6c, 0x75, 0x74, 0x69, 0x6f, 0x6e, 0x00, 0x00, 0x00, 
0x04, 0x00, 0x00, 0x00, 0x01, 0x00, 0x00, 0x00, 0x01, 0x00, 0x00, 0x00, 
0x0a, 0x00, 0x00, 0x00, 0x20, 0x00, 0x00, 0x00, 0xbe, 0xe9, 0xff, 0xff, 
0x00, 0x00, 0x00, 0x01, 0x18, 0x00, 0x00, 0x00, 0x28, 0x00, 0x00, 0x00, 
0x44, 0x00, 0x00, 0x00, 0x21, 0x00, 0x00, 0x00, 0x00, 0x00, 0x00, 0x09, 
0x6c, 0x00, 0x00, 0x00, 0x04, 0x00, 0x00, 0x00, 0xff, 0xff, 0xff, 0xff, 
0x01, 0x00, 0x00, 0x00, 0x0c, 0x00, 0x00, 0x00, 0x20, 0x00, 0x00, 0x00, 
0xac, 0xe9, 0xff, 0xff, 0x08, 0x00, 0x00, 0x00, 0x10, 0x00, 0x00, 0x00, 
0x01, 0x00, 0x00, 0x00, 0x80, 0xff, 0xff, 0xff, 0xff, 0xff, 0xff, 0xff, 
0x01, 0x00, 0x00, 0x00, 0xce, 0xd7, 0x66, 0x3d, 0x2e, 0x00, 0x00, 0x00, 
0x73, 0x65, 0x71, 0x75, 0x65, 0x6e, 0x74, 0x69, 0x61, 0x6c, 0x5f, 0x31, 
0x2f, 0x63, 0x6f, 0x6e, 0x76, 0x31, 0x64, 0x5f, 0x32, 0x5f, 0x31, 0x2f, 
0x63, 0x6f, 0x6e, 0x76, 0x6f, 0x6c, 0x75, 0x74, 0x69, 0x6f, 0x6e, 0x2f, 
0x45, 0x78, 0x70, 0x61, 0x6e, 0x64, 0x44, 0x69, 0x6d, 0x73, 0x00, 0x00, 
0x04, 0x00, 0x00, 0x00, 0x01, 0x00, 0x00, 0x00, 0x01, 0x00, 0x00, 0x00, 
0x0c, 0x00, 0x00, 0x00, 0x20, 0x00, 0x00, 0x00, 0x5a, 0xea, 0xff, 0xff, 
0x00, 0x00, 0x00, 0x01, 0x18, 0x00, 0x00, 0x00, 0x24, 0x00, 0x00, 0x00, 
0x44, 0x00, 0x00, 0x00, 0x20, 0x00, 0x00, 0x00, 0x00, 0x00, 0x00, 0x09, 
0x70, 0x00, 0x00, 0x00, 0x03, 0x00, 0x00, 0x00, 0xff, 0xff, 0xff, 0xff, 
0x0c, 0x00, 0x00, 0x00, 0x20, 0x00, 0x00, 0x00, 0x44, 0xea, 0xff, 0xff, 
0x08, 0x00, 0x00, 0x00, 0x14, 0x00, 0x00, 0x00, 0x01, 0x00, 0x00, 0x00, 
0x80, 0xff, 0xff, 0xff, 0xff, 0xff, 0xff, 0xff, 0x00, 0x00, 0x00, 0x00, 
0x01, 0x00, 0x00, 0x00, 0xce, 0xd7, 0x66, 0x3d, 0x30, 0x00, 0x00, 0x00, 
0x73, 0x65, 0x71, 0x75, 0x65, 0x6e, 0x74, 0x69, 0x61, 0x6c, 0x5f, 0x31, 
0x2f, 0x6d, 0x61, 0x78, 0x5f, 0x70, 0x6f, 0x6f, 0x6c, 0x69, 0x6e, 0x67, 
0x31, 0x64, 0x5f, 0x31, 0x5f, 0x32, 0x2f, 0x4d, 0x61, 0x78, 0x50, 0x6f, 
0x6f, 0x6c, 0x31, 0x64, 0x2f, 0x53, 0x71, 0x75, 0x65, 0x65, 0x7a, 0x65, 
0x00, 0x00, 0x00, 0x00, 0x03, 0x00, 0x00, 0x00, 0x01, 0x00, 0x00, 0x00, 
0x0c, 0x00, 0x00, 0x00, 0x20, 0x00, 0x00, 0x00, 0xf6, 0xea, 0xff, 0xff, 
0x00, 0x00, 0x00, 0x01, 0x18, 0x00, 0x00, 0x00, 0x28, 0x00, 0x00, 0x00, 
0x44, 0x00, 0x00, 0x00, 0x1f, 0x00, 0x00, 0x00, 0x00, 0x00, 0x00, 0x09, 
0x68, 0x00, 0x00, 0x00, 0x04, 0x00, 0x00, 0x00, 0xff, 0xff, 0xff, 0xff, 
0x01, 0x00, 0x00, 0x00, 0x0c, 0x00, 0x00, 0x00, 0x20, 0x00, 0x00, 0x00, 
0xe4, 0xea, 0xff, 0xff, 0x08, 0x00, 0x00, 0x00, 0x10, 0x00, 0x00, 0x00, 
0x01, 0x00, 0x00, 0x00, 0x80, 0xff, 0xff, 0xff, 0xff, 0xff, 0xff, 0xff, 
0x01, 0x00, 0x00, 0x00, 0xce, 0xd7, 0x66, 0x3d, 0x28, 0x00, 0x00, 0x00, 
0x73, 0x65, 0x71, 0x75, 0x65, 0x6e, 0x74, 0x69, 0x61, 0x6c, 0x5f, 0x31, 
0x2f, 0x6d, 0x61, 0x78, 0x5f, 0x70, 0x6f, 0x6f, 0x6c, 0x69, 0x6e, 0x67, 
0x31, 0x64, 0x5f, 0x31, 0x5f, 0x32, 0x2f, 0x4d, 0x61, 0x78, 0x50, 0x6f, 
0x6f, 0x6c, 0x31, 0x64, 0x00, 0x00, 0x00, 0x00, 0x04, 0x00, 0x00, 0x00, 
0x01, 0x00, 0x00, 0x00, 0x01, 0x00, 0x00, 0x00, 0x0c, 0x00, 0x00, 0x00, 
0x20, 0x00, 0x00, 0x00, 0x8e, 0xeb, 0xff, 0xff, 0x00, 0x00, 0x00, 0x01, 
0x18, 0x00, 0x00, 0x00, 0x28, 0x00, 0x00, 0x00, 0x48, 0x00, 0x00, 0x00, 
0x1e, 0x00, 0x00, 0x00, 0x00, 0x00, 0x00, 0x09, 0x74, 0x00, 0x00, 0x00, 
0x04, 0x00, 0x00, 0x00, 0xff, 0xff, 0xff, 0xff, 0x01, 0x00, 0x00, 0x00, 
0x19, 0x00, 0x00, 0x00, 0x20, 0x00, 0x00, 0x00, 0x7c, 0xeb, 0xff, 0xff, 
0x08, 0x00, 0x00, 0x00, 0x14, 0x00, 0x00, 0x00, 0x01, 0x00, 0x00, 0x00, 
0x80, 0xff, 0xff, 0xff, 0xff, 0xff, 0xff, 0xff, 0x00, 0x00, 0x00, 0x00, 
0x01, 0x00, 0x00, 0x00, 0xce, 0xd7, 0x66, 0x3d, 0x33, 0x00, 0x00, 0x00, 
0x73, 0x65, 0x71, 0x75, 0x65, 0x6e, 0x74, 0x69, 0x61, 0x6c, 0x5f, 0x31, 
0x2f, 0x6d, 0x61, 0x78, 0x5f, 0x70, 0x6f, 0x6f, 0x6c, 0x69, 0x6e, 0x67, 
0x31, 0x64, 0x5f, 0x31, 0x5f, 0x32, 0x2f, 0x4d, 0x61, 0x78, 0x50, 0x6f, 
0x6f, 0x6c, 0x31, 0x64, 0x2f, 0x45, 0x78, 0x70, 0x61, 0x6e, 0x64, 0x44, 
0x69, 0x6d, 0x73, 0x00, 0x04, 0x00, 0x00, 0x00, 0x01, 0x00, 0x00, 0x00, 
